<unk>	0
▁là	-3.20602
▁cái	-3.60657
▁mình	-3.86603
▁có	-3.97835
▁thì	-4.10153
▁mà	-4.13791
▁một	-4.23742
▁không	-4.31146
▁bạn	-4.38872
▁và	-4.46471
▁những	-4.47881
▁nó	-4.48459
▁của	-4.6522
▁người	-4.68889
▁ta	-4.80344
▁các	-4.81731
▁sẽ	-4.85443
▁đó	-4.85637
▁đi	-4.91516
▁được	-4.91816
▁như	-4.9403
▁cho	-4.94064
▁rất	-4.94263
▁cũng	-5.01432
▁này	-5.0272
▁để	-5.04309
▁chúng	-5.05091
▁với	-5.09829
▁em	-5.10902
▁thể	-5.18658
▁phải	-5.20163
▁trong	-5.20285
▁làm	-5.21499
▁nhiều	-5.28232
▁ra	-5.32676
▁khi	-5.33488
▁rồi	-5.37785
▁ở	-5.46798
▁anh	-5.47599
▁về	-5.49611
▁nhưng	-5.52679
▁vì	-5.60797
▁học	-5.60923
▁gì	-5.62252
▁thấy	-5.62639
▁hai	-5.63859
▁lại	-5.64225
▁nói	-5.64254
▁đấy	-5.64267
▁hơn	-5.64595
▁đã	-5.64952
▁nào	-5.66591
▁họ	-5.66932
▁sự	-5.67861
▁việc	-5.68209
▁hay	-5.71513
▁đến	-5.7675
▁thế	-5.77488
▁nên	-5.78728
▁đầu	-5.85258
▁cảm	-5.86419
▁đây	-5.8711
▁từ	-5.9103
▁giờ	-5.92244
▁vậy	-5.92621
▁biết	-5.93742
▁nghĩ	-5.94768
▁năm	-5.94775
▁con	-5.95418
▁công	-5.97801
▁điều	-6.01107
▁nếu	-6.03756
▁chỉ	-6.0387
▁thôi	-6.04932
▁tại	-6.07248
▁vào	-6.07794
▁đúng	-6.07877
▁ba	-6.0812
▁luôn	-6.08693
▁cả	-6.08768
▁chính	-6.09345
▁thời	-6.09493
▁quan	-6.10973
▁khác	-6.11193
▁muốn	-6.11227
▁còn	-6.13336
▁đang	-6.14171
▁ngày	-6.16582
▁thứ	-6.16933
▁mọi	-6.1736
▁mới	-6.18008
▁quá	-6.21235
▁vi	-6.22231
▁bản	-6.2322
▁tôi	-6.24407
▁sao	-6.24721
▁nhất	-6.25094
▁chị	-6.25402
▁ti	-6.2601
▁nữa	-6.27427
▁cách	-6.27857
▁cần	-6.29099
▁thân	-6.29462
▁á	-6.30138
▁tin	-6.3075
▁câu	-6.31513
▁sau	-6.33712
▁ai	-6.35562
▁ô	-6.37436
▁lúc	-6.38251
▁bị	-6.39265
▁rằng	-6.39978
▁sống	-6.40289
▁theo	-6.40305
▁thành	-6.40915
▁bây	-6.43362
▁thích	-6.43975
▁cô	-6.47536
▁thực	-6.48004
▁phần	-6.48258
▁tự	-6.50827
▁chuyện	-6.50876
▁hỏi	-6.5166
▁nhau	-6.52403
▁nhận	-6.53068
▁ý	-6.53387
▁cuộc	-6.53976
▁lên	-6.54024
▁đâu	-6.55726
▁điểm	-6.55727
▁tốt	-6.55819
▁gian	-6.58888
▁trước	-6.60403
▁trên	-6.60709
▁trường	-6.61015
▁số	-6.6119
▁vẫn	-6.61651
▁thật	-6.64531
▁bi	-6.6462
▁sờ	-6.65892
▁chưa	-6.67558
▁qua	-6.6785
▁bởi	-6.68031
▁yêu	-6.6967
▁hiểu	-6.70279
▁tiếp	-6.70745
▁hết	-6.70892
▁mươi	-6.71018
▁ri	-6.71194
▁cùng	-6.7121
▁nhìn	-6.71785
▁năng	-6.72665
▁tới	-6.7312
▁hiện	-6.73619
▁trình	-6.74472
▁thường	-6.74955
▁ấy	-6.75686
▁tập	-6.76087
▁đề	-6.76499
▁động	-6.76599
▁trọng	-6.76737
▁phát	-6.77776
▁lý	-6.78618
▁nhà	-6.7875
▁hoặc	-6.79307
▁si	-6.8009
▁kiểu	-6.80559
▁xem	-6.80569
▁định	-6.81003
▁việt	-6.81545
▁tư	-6.82267
▁sản	-6.82472
▁hàng	-6.84394
▁sinh	-6.84907
▁tâm	-6.85167
▁hợp	-6.85216
▁tiền	-6.85217
▁chia	-6.85494
▁giá	-6.85506
▁bắt	-6.85731
▁gia	-6.86764
▁nay	-6.871
▁tất	-6.88496
▁dụng	-6.89572
▁bên	-6.90261
▁ăn	-6.91004
▁bao	-6.91359
▁hãy	-6.91575
▁trăm	-6.91783
▁tiên	-6.91838
▁đối	-6.9202
▁mười	-6.92176
▁nam	-6.92448
▁nhiên	-6.9278
▁à	-6.94286
▁sừn	-6.95503
▁tìm	-6.95588
▁a	-6.95942
▁hôm	-6.97312
▁nghe	-6.98059
▁tiếng	-6.98171
▁gọi	-6.98365
▁dụ	-6.98459
▁nghiệp	-6.9884
▁khó	-6.98995
▁cứ	-6.99378
▁vấn	-7.00649
▁cơ	-7.01471
▁sẻ	-7.01826
▁ví	-7.01866
▁nghĩa	-7.01962
▁in	-7.02018
▁vừa	-7.02463
▁thông	-7.02813
▁lai	-7.02981
▁phẩm	-7.02987
▁lời	-7.03168
▁mẹ	-7.03242
▁chắc	-7.04162
▁ờ	-7.0437
▁lần	-7.04933
▁bài	-7.05103
▁dùng	-7.0534
▁thay	-7.05892
▁hình	-7.06252
▁đổi	-7.06502
▁thức	-7.0657
▁li	-7.06775
▁ngoài	-7.07192
▁nước	-7.0765
▁lớn	-7.08171
▁tình	-7.08202
▁xong	-7.10034
▁nhân	-7.10316
▁mua	-7.1155
▁mỗi	-7.119
▁chứ	-7.12158
▁đồng	-7.12694
▁chọn	-7.1283
▁sách	-7.13541
▁hội	-7.14041
▁ni	-7.1416
▁kết	-7.14262
▁mặt	-7.14618
▁tính	-7.15311
▁gặp	-7.15972
▁hệ	-7.16462
▁tạo	-7.16572
▁trở	-7.18565
▁dạ	-7.19339
▁lực	-7.19905
▁dễ	-7.1994
▁bằng	-7.20599
▁hành	-7.2102
▁trung	-7.21334
▁kinh	-7.21865
▁do	-7.22952
▁giúp	-7.23282
▁thêm	-7.23604
▁tức	-7.24542
▁toàn	-7.25159
▁tiêu	-7.2663
▁đọc	-7.26924
▁triển	-7.27669
▁đờ	-7.27784
▁khá	-7.28234
▁xin	-7.28407
▁khoảng	-7.29747
▁sử	-7.2992
▁cao	-7.30905
▁nha	-7.31032
▁bình	-7.31207
▁chút	-7.31405
▁ông	-7.31733
▁vô	-7.31869
i	-7.3291
▁mi	-7.33721
▁đều	-7.341
▁hoàn	-7.34109
▁hạn	-7.34671
▁lắm	-7.35035
▁doanh	-7.35197
▁giống	-7.35479
▁thương	-7.356
▁hơi	-7.3711
▁biệt	-7.3748
▁trả	-7.37779
▁kê	-7.38078
▁càng	-7.38273
▁sai	-7.39224
▁trị	-7.3926
▁en	-7.39575
▁nghiệm	-7.39984
▁bốn	-7.4073
▁bộ	-7.4085
▁vị	-7.41204
▁cố	-7.4129
▁i	-7.41439
▁bờ	-7.42606
▁sáng	-7.43162
▁sang	-7.43537
▁độ	-7.43605
▁giải	-7.43735
▁lượng	-7.43907
▁nhớ	-7.44879
▁ca	-7.44919
▁từng	-7.44968
▁lâu	-7.45458
▁giới	-7.45726
▁chủ	-7.46631
▁sâu	-7.47351
▁nhỏ	-7.47715
▁tích	-7.47716
▁đủ	-7.47944
▁gần	-7.4799
▁quả	-7.48193
▁dành	-7.48679
▁viên	-7.49286
▁vui	-7.49934
▁quay	-7.49941
▁chi	-7.50013
▁ngay	-7.50401
▁đẹp	-7.50682
▁quyết	-7.51107
▁di	-7.51149
▁da	-7.51353
▁ít	-7.51438
▁suy	-7.51781
▁kỳ	-7.51818
▁quen	-7.52296
▁đưa	-7.52438
▁đặc	-7.52582
▁chất	-7.5263
▁màu	-7.52864
▁đừng	-7.5316
▁ty	-7.53406
▁đôi	-7.53771
▁đại	-7.53885
▁đơn	-7.54916
▁tế	-7.55051
▁bảo	-7.55058
▁đồ	-7.55281
▁liên	-7.5545
▁xúc	-7.55798
▁xi	-7.56314
▁rõ	-7.56444
▁tháng	-7.56743
▁cuối	-7.56843
▁tu	-7.57137
▁tài	-7.57145
▁thi	-7.58222
▁kiến	-7.58408
▁chung	-7.58872
▁hướng	-7.58968
▁áp	-7.59281
▁hiệu	-7.60253
▁đời	-7.60872
▁thử	-7.60981
▁đa	-7.61577
▁cực	-7.61713
▁kỹ	-7.61766
▁trẻ	-7.61924
▁xuất	-7.62082
▁bất	-7.62452
▁chơi	-7.62772
▁tinh	-7.63123
▁kia	-7.63315
▁cuốn	-7.63414
▁ơn	-7.6363
▁mối	-7.64267
▁hồi	-7.64566
▁ảnh	-7.64754
▁tuổi	-7.65406
▁mất	-7.66337
▁bé	-7.66571
▁tác	-7.66721
▁cờ	-7.66724
▁phương	-7.66778
▁đường	-7.66778
▁đặt	-7.66944
▁sáu	-7.6761
▁mang	-7.67644
▁bước	-7.67722
▁trải	-7.68042
▁môn	-7.68477
▁khách	-7.68628
▁tám	-7.69183
▁gắng	-7.6924
▁mong	-7.6942
▁hóa	-7.6975
▁thị	-7.69847
▁chí	-7.70266
▁chẳng	-7.70666
▁bỏ	-7.71376
▁mai	-7.71609
▁du	-7.72149
▁duy	-7.72602
▁mấy	-7.72638
▁ngồi	-7.72991
▁so	-7.73331
▁san	-7.73602
▁mục	-7.74472
▁an	-7.7467
▁uống	-7.75251
▁chương	-7.75491
▁mô	-7.75528
▁chuẩn	-7.75673
▁nè	-7.75793
▁dù	-7.75848
▁nhá	-7.76405
▁mạnh	-7.76644
▁ngành	-7.77256
▁phụ	-7.77556
▁nghệ	-7.78056
▁coi	-7.79075
▁kể	-7.79741
▁đánh	-7.80247
▁trang	-7.80259
▁sức	-7.80309
▁dài	-7.80562
ng	-7.80581
▁ạ	-7.80627
▁tay	-7.80735
▁bảy	-7.81199
▁ma	-7.81553
▁tương	-7.81839
▁nội	-7.82808
▁hát	-7.82873
▁tơ	-7.8297
▁cầu	-7.83328
▁loại	-7.83589
▁phù	-7.83655
▁tục	-7.83785
▁riêng	-7.83786
▁giác	-7.83934
▁viết	-7.83987
▁xe	-7.84108
▁lấy	-7.84113
▁linh	-7.84261
▁thầy	-7.84376
▁lớp	-7.84971
▁minh	-7.85449
▁giả	-7.85466
▁thu	-7.85628
▁phân	-7.8577
▁đình	-7.85771
▁chín	-7.86009
▁trời	-7.86441
▁pháp	-7.86508
▁tham	-7.87118
▁yếu	-7.87795
▁sợ	-7.87847
▁thiết	-7.88481
▁khiến	-7.88831
▁quốc	-7.89237
▁khả	-7.893
▁lo	-7.89531
▁mặc	-7.90771
▁trí	-7.91355
▁ki	-7.91408
▁chắn	-7.91617
▁pho	-7.91709
▁ơi	-7.9185
▁xã	-7.92543
▁liệu	-7.92829
▁bán	-7.9311
▁tờ	-7.93199
▁cấp	-7.93405
▁chờ	-7.93406
▁ha	-7.93706
▁ừ	-7.93993
▁tên	-7.94037
▁mở	-7.94492
▁na	-7.94572
▁mức	-7.94711
▁ngủ	-7.94858
▁lòng	-7.94859
▁buổi	-7.96035
▁vài	-7.96076
▁sa	-7.96408
▁hạnh	-7.96559
▁nhanh	-7.96868
▁kiếm	-7.97303
▁ét	-7.97378
▁cá	-7.97814
▁văn	-7.97835
▁lập	-7.98131
▁tưởng	-7.98358
▁sân	-7.98358
▁giản	-7.98696
▁trò	-7.99086
▁môi	-7.99592
▁diu	-7.99601
▁ây	-8.00195
▁mày	-8.00427
▁đoạn	-8.01436
▁máy	-8.01521
▁đứa	-8.01749
▁lựa	-8.01749
▁diễn	-8.02615
▁kế	-8.02764
▁đạt	-8.02853
▁vọng	-8.04049
▁tăng	-8.0421
▁hoạt	-8.04774
▁sĩ	-8.05178
▁phi	-8.05323
▁tuy	-8.05689
▁quanh	-8.06688
▁khăn	-8.06826
▁hưởng	-8.07228
▁món	-8.07639
▁giỏi	-8.07644
▁tóc	-8.07976
▁cạnh	-8.08562
▁dung	-8.09206
▁xung	-8.09764
▁cụ	-8.09813
▁tiết	-8.10005
▁chào	-8.10682
▁phúc	-8.10941
▁điện	-8.11203
▁chuyên	-8.11457
▁mắt	-8.11457
▁dạy	-8.11518
▁phòng	-8.11803
▁tối	-8.12215
n	-8.13347
▁nhiêu	-8.13728
▁giáo	-8.14468
▁đương	-8.14795
▁tượng	-8.14973
▁mạng	-8.15513
▁xác	-8.15691
▁nguyên	-8.15692
▁báo	-8.16144
▁phút	-8.16145
▁giao	-8.16265
▁ràng	-8.16325
▁lăm	-8.16506
▁dịch	-8.16507
▁chứng	-8.16524
▁dần	-8.16871
▁xuống	-8.16962
▁gái	-8.16962
▁la	-8.1784
▁thói	-8.17879
▁lợi	-8.18248
▁cây	-8.18248
▁nô	-8.1852
▁men	-8.18637
▁tim	-8.18892
▁lô	-8.18927
▁ứng	-8.19738
▁thậm	-8.19926
▁cứu	-8.20068
▁đất	-8.20303
▁sư	-8.2034
▁rô	-8.20431
▁tao	-8.20641
m	-8.20665
▁xa	-8.20834
▁bố	-8.21776
▁tuần	-8.21924
▁chuyển	-8.22209
▁buồn	-8.22356
▁sô	-8.22416
▁nhạc	-8.22498
▁tố	-8.22504
▁nơi	-8.228
▁phim	-8.23207
▁đáng	-8.23288
▁khoa	-8.23562
▁nguồn	-8.23858
▁xây	-8.23956
▁sắp	-8.24054
▁chỗ	-8.2425
▁lắng	-8.24545
▁quản	-8.25009
▁hả	-8.25454
▁dự	-8.25479
▁vụ	-8.25556
▁truyền	-8.25634
▁xưa	-8.25733
▁dẫn	-8.25734
▁toán	-8.25737
▁mỹ	-8.25833
▁giữ	-8.26116
▁com	-8.26261
▁phí	-8.26468
▁lịch	-8.26735
▁e	-8.26767
▁triệu	-8.26936
▁biến	-8.27137
▁h	-8.27348
▁chú	-8.27777
▁quên	-8.27857
▁giữa	-8.28069
▁to	-8.28098
▁cộng	-8.28257
▁cha	-8.28752
▁nền	-8.28771
▁chịu	-8.29187
▁thần	-8.29905
y	-8.3049
▁khỏe	-8.3053
▁bà	-8.30791
▁mái	-8.30975
▁su	-8.31042
▁tụi	-8.31481
▁sơ	-8.31653
▁chấp	-8.31793
▁án	-8.32047
▁chân	-8.32112
▁mát	-8.3254
▁sẵn	-8.32857
▁thú	-8.33578
▁mời	-8.33756
▁giai	-8.34464
▁dân	-8.34471
▁nghiên	-8.34689
▁đô	-8.34876
▁dưới	-8.35021
▁thuộc	-8.35021
▁ngữ	-8.35459
▁cát	-8.36245
▁phai	-8.3628
▁luận	-8.36674
▁vẻ	-8.37232
▁phờ	-8.37905
▁ích	-8.3813
▁nhắc	-8.39037
▁chạy	-8.39151
▁bê	-8.39224
▁chăm	-8.39265
▁hoa	-8.39284
▁nhóm	-8.39952
▁vật	-8.40067
▁ngoại	-8.40875
▁nổi	-8.40998
▁trai	-8.41381
▁chiếc	-8.41457
▁tít	-8.41581
▁tầm	-8.4169
▁chức	-8.4183
▁giảm	-8.42088
▁thái	-8.42159
▁dựng	-8.42439
▁sắc	-8.42512
▁thống	-8.42512
▁ngân	-8.4263
▁bè	-8.42975
▁nghề	-8.42984
▁diện	-8.43459
▁sát	-8.43697
▁ban	-8.43772
▁tô	-8.43885
▁quý	-8.44165
▁nghìn	-8.44175
▁thoả	-8.44219
▁thiếu	-8.44296
▁may	-8.44341
▁quy	-8.44636
▁đau	-8.45051
▁dục	-8.45051
▁kênh	-8.45403
▁vòng	-8.45867
▁vai	-8.45904
▁chế	-8.46344
▁vực	-8.46724
▁lỗi	-8.46984
▁trợ	-8.47217
▁nhật	-8.47341
▁nãy	-8.47588
▁hoạch	-8.47836
▁góc	-8.47961
▁thiện	-8.47961
▁bác	-8.48459
▁hằng	-8.4846
▁xử	-8.48961
▁ngàn	-8.49016
▁rít	-8.49087
▁bô	-8.49325
▁rét	-8.49466
▁dòng	-8.49467
▁cười	-8.49972
▁tổ	-8.50027
▁nhẹ	-8.50176
▁kiện	-8.50354
▁kiểm	-8.50481
▁gi	-8.50689
▁đứng	-8.50993
▁nối	-8.50993
▁phong	-8.52225
▁khán	-8.52666
▁cổ	-8.53554
▁bo	-8.53709
▁nữ	-8.54501
▁thanh	-8.5452
▁bót	-8.54521
▁túp	-8.54652
▁đạo	-8.54784
▁cân	-8.54785
▁tiến	-8.54786
▁niềm	-8.54926
▁dậy	-8.55185
▁bai	-8.55232
▁mê	-8.5558
▁gờ	-8.56261
▁bệnh	-8.56532
▁phục	-8.56817
▁sét	-8.5694
▁sớm	-8.57212
▁xét	-8.57212
▁thoại	-8.57485
▁gửi	-8.57622
▁ghi	-8.57835
▁rì	-8.58026
▁bay	-8.58193
▁hồ	-8.58443
▁luyện	-8.58448
▁tranh	-8.58592
▁nằm	-8.59421
▁chết	-8.59432
▁ép	-8.59982
▁áo	-8.60062
▁lây	-8.60122
▁âm	-8.60123
▁ren	-8.60528
▁sen	-8.60701
▁tuyệt	-8.60968
▁trái	-8.61822
▁sở	-8.61822
▁xíu	-8.62109
▁xảy	-8.62255
▁nét	-8.6283
▁túi	-8.63133
▁quyền	-8.63698
▁bọn	-8.65186
▁nhập	-8.65462
▁thất	-8.66205
▁chiều	-8.66205
▁trưởng	-8.66355
▁ưu	-8.66355
▁dưỡng	-8.66504
▁kỷ	-8.66504
▁nhờ	-8.6662
▁ten	-8.66668
▁huynh	-8.66958
▁luật	-8.67106
▁xanh	-8.67268
▁bơ	-8.67443
▁thẳng	-8.67559
▁tai	-8.67956
▁nhiệm	-8.68318
▁on	-8.6834
▁	-8.69038
a	-8.69371
▁xấu	-8.69547
▁chấm	-8.69701
▁chữ	-8.69794
▁lít	-8.69856
▁tôn	-8.69896
▁thuật	-8.70015
▁cáo	-8.70028
▁rai	-8.70066
▁nhu	-8.7014
▁dạng	-8.70183
▁lĩnh	-8.70633
▁cảnh	-8.70893
▁vời	-8.71011
▁lát	-8.71107
▁phản	-8.71417
▁min	-8.71678
▁vàng	-8.72068
▁hỗ	-8.73133
▁đội	-8.73425
▁xu	-8.73471
▁đen	-8.7349
▁lan	-8.73539
▁mắc	-8.74453
▁mơ	-8.74457
▁phía	-8.7448
▁gây	-8.74941
▁nghỉ	-8.75594
▁dờ	-8.75852
▁niệm	-8.76088
▁nờ	-8.7609
▁mùi	-8.7626
▁hà	-8.76399
▁ngắn	-8.76916
▁nông	-8.76985
▁mệt	-8.77249
▁vượt	-8.77918
▁trách	-8.77919
▁suốt	-8.7792
▁đóng	-8.78179
▁mắn	-8.78757
▁ổn	-8.7876
▁bớt	-8.78762
▁tây	-8.78933
▁tí	-8.79014
▁chiến	-8.79103
▁sàng	-8.79442
▁đớt	-8.79954
▁thiên	-8.80126
▁phá	-8.80204
▁mừn	-8.80294
▁tảng	-8.80832
▁vờ	-8.81091
▁tổng	-8.81912
▁rây	-8.82032
▁khoản	-8.82202
▁dữ	-8.82207
▁ga	-8.82301
▁xuân	-8.82737
▁me	-8.83046
▁rút	-8.83087
▁pha	-8.83089
▁đàn	-8.83448
▁ly	-8.83628
▁tra	-8.83661
▁cải	-8.83681
▁khí	-8.83977
▁nâng	-8.84154
▁hồng	-8.85105
▁chồng	-8.85233
▁khởi	-8.85413
▁lương	-8.85413
▁đăng	-8.85594
▁ký	-8.85957
▁đầy	-8.85958
▁cầm	-8.86322
▁vững	-8.86505
▁nít	-8.86689
▁bàn	-8.86974
▁tận	-8.87055
▁hẹn	-8.8724
▁ngôn	-8.87277
u	-8.8728
▁vơ	-8.87535
▁chả	-8.8768
▁phiếu	-8.87795
▁tệ	-8.8784
▁phố	-8.88274
▁xếp	-8.88352
▁co	-8.88556
▁vin	-8.88708
▁len	-8.88741
▁dừng	-8.88914
▁đông	-8.89167
▁phây	-8.89665
▁dàng	-8.89855
▁đích	-8.90043
▁rộng	-8.90236
▁vệ	-8.90247
▁xê	-8.90437
▁hài	-8.90509
▁gu	-8.90688
▁lẽ	-8.90805
▁dám	-8.90996
▁ngược	-8.90996
▁đáp	-8.90998
▁đỡ	-8.91188
▁tắc	-8.91765
▁bát	-8.91766
▁lưu	-8.91957
▁khuyên	-8.92151
▁ken	-8.92193
▁hộ	-8.92275
▁thuyết	-8.92539
▁hẳn	-8.93319
▁khỏi	-8.93319
▁khóa	-8.93438
▁giang	-8.93468
▁dõi	-8.94304
▁búc	-8.94502
▁mờ	-8.94638
▁sóc	-8.95298
▁độc	-8.95327
▁lãnh	-8.95901
▁đem	-8.95904
▁sánh	-8.96504
▁hứng	-8.96707
▁trạng	-8.97112
▁liền	-8.97116
▁đức	-8.97316
▁xuyên	-8.9752
▁sin	-8.97528
▁nỗi	-8.97587
▁hiểm	-8.97725
▁tử	-8.97725
▁tỷ	-8.97725
▁son	-8.97756
▁pi	-8.98063
▁địa	-8.98135
▁dầu	-8.98135
▁suất	-8.98343
▁đêm	-8.98358
▁ấn	-8.98961
▁nắng	-8.99168
▁két	-8.99168
▁tét	-8.99373
▁thiệu	-8.99376
▁nhảy	-8.99585
▁cửa	-8.99588
▁cam	-8.99916
▁cà	-8.99978
▁hề	-9.00218
▁khai	-9.00433
▁nhắn	-9.00632
▁khổ	-9.01279
▁vốn	-9.01691
▁thư	-9.02315
▁căn	-9.02543
▁bít	-9.02552
▁mo	-9.02569
▁dựa	-9.02584
▁cận	-9.02978
▁tặng	-9.03411
▁bật	-9.03411
▁trì	-9.0362
▁hữu	-9.03627
▁ngon	-9.03628
▁chống	-9.03845
▁thủ	-9.04045
▁sổ	-9.04063
▁nỗ	-9.04212
▁đít	-9.04281
▁chúc	-9.04295
▁mét	-9.04938
▁nuôi	-9.04939
▁kiệm	-9.05159
▁thấp	-9.0538
▁sạch	-9.0538
▁phổ	-9.05527
▁thách	-9.05601
▁quán	-9.05721
▁phê	-9.05823
▁trao	-9.05833
▁kì	-9.06029
▁tránh	-9.06045
▁đỏ	-9.06045
▁vùng	-9.06715
▁mãi	-9.06739
▁phủ	-9.06939
▁quà	-9.0694
▁khánh	-9.06986
▁bồ	-9.07383
▁mẫu	-9.07389
▁tát	-9.0739
▁quỹ	-9.07614
▁vân	-9.08064
▁quần	-9.08068
▁ngờ	-9.0807
▁mùa	-9.08297
▁y	-9.08342
▁tết	-9.08592
▁bữa	-9.08979
▁đam	-9.09787
▁đợi	-9.099
▁phép	-9.099
▁vợ	-9.0994
▁mốt	-9.10132
▁châu	-9.10132
▁khu	-9.10306
▁ro	-9.10781
▁vận	-9.10829
▁danh	-9.10866
▁chỉnh	-9.11225
▁cũ	-9.11259
▁vay	-9.11322
▁cậu	-9.11767
▁yên	-9.11769
▁va	-9.11866
▁thiệt	-9.12005
▁đá	-9.12124
▁đón	-9.12618
▁nợ	-9.12952
▁giọng	-9.12952
▁hào	-9.12965
▁kem	-9.12969
▁tín	-9.12999
▁chai	-9.13358
▁lãi	-9.13461
▁sít	-9.13668
▁bại	-9.14155
▁soát	-9.14396
▁bánh	-9.14398
▁xinh	-9.14437
▁khủng	-9.15121
▁tùy	-9.15369
▁chục	-9.15609
▁nhàng	-9.15772
▁lạ	-9.16435
▁góp	-9.16593
▁bổng	-9.16619
▁bận	-9.16841
▁bu	-9.17049
▁chen	-9.17143
▁thí	-9.17373
▁phan	-9.17634
▁lu	-9.18397
▁tiện	-9.18595
▁chán	-9.19096
▁ngại	-9.19097
▁đeo	-9.19099
▁n	-9.19207
▁can	-9.19287
▁lệ	-9.19341
▁mừng	-9.19357
▁bền	-9.19377
▁hương	-9.19605
▁trắng	-9.1986
▁hậu	-9.19861
▁mít	-9.20374
▁săn	-9.20393
▁sài	-9.20631
▁tỉnh	-9.20891
▁cốt	-9.21203
▁trực	-9.21405
▁hảo	-9.21426
▁đổ	-9.21594
▁đảm	-9.21664
▁bin	-9.21818
▁lành	-9.22367
▁buộc	-9.22447
▁thúc	-9.22463
▁ánh	-9.22589
▁âu	-9.22713
▁cung	-9.22744
▁ơ	-9.22871
▁viu	-9.23
▁thằng	-9.23237
▁cám	-9.2333
▁thắng	-9.23502
▁niu	-9.23959
▁dây	-9.24033
▁nặng	-9.243
▁hầu	-9.24838
▁hoàng	-9.24862
▁khám	-9.25025
▁che	-9.25092
▁đào	-9.25108
▁pót	-9.25373
▁chu	-9.25387
▁hi	-9.25561
▁se	-9.25862
▁bét	-9.25982
▁eo	-9.26212
▁cắt	-9.26459
▁lê	-9.26543
▁gòn	-9.27009
▁căng	-9.27011
▁trân	-9.27281
▁rơi	-9.27291
▁ghét	-9.27557
▁giàu	-9.27565
▁tuyển	-9.27833
▁hòa	-9.27839
▁mỏi	-9.28391
▁lạc	-9.28394
▁gắn	-9.29221
▁lầm	-9.29506
▁nắm	-9.29507
▁bóng	-9.29808
▁kim	-9.29893
▁kiên	-9.29926
▁kin	-9.30198
▁giây	-9.30359
▁quảng	-9.30601
▁vê	-9.30632
▁đét	-9.30923
▁biểu	-9.30923
▁nâu	-9.3121
▁tê	-9.31292
▁sửa	-9.31335
▁ben	-9.31467
▁hút	-9.31498
▁má	-9.32037
▁sếp	-9.3236
▁tóp	-9.32384
▁kéo	-9.32649
▁tốn	-9.32663
▁xứng	-9.32946
▁khóc	-9.33007
▁ôn	-9.33019
▁cu	-9.33064
▁đòi	-9.33232
▁răng	-9.33817
▁nguyễn	-9.34111
▁đoán	-9.34111
▁rủi	-9.34133
▁s	-9.34167
▁đu	-9.34361
▁gỡ	-9.34702
▁siêu	-9.34709
▁lạnh	-9.35008
▁đuổi	-9.35296
▁ước	-9.35299
▁biện	-9.35299
▁thở	-9.35894
▁hôn	-9.36207
▁trà	-9.36413
▁đợt	-9.36496
▁kém	-9.36497
▁vâng	-9.36501
▁lét	-9.37067
▁ủng	-9.37409
▁khô	-9.37566
▁gô	-9.37669
▁kêu	-9.37815
▁thơ	-9.38302
▁phạm	-9.38322
▁chuyến	-9.38322
▁nồ	-9.38909
▁thưởng	-9.38938
▁đơ	-9.39215
▁chụp	-9.39248
o	-9.39439
t	-9.39644
▁khảo	-9.40219
▁thuốc	-9.40501
▁bức	-9.41127
▁dô	-9.4138
▁líp	-9.41443
▁nấu	-9.41444
▁song	-9.41655
▁phiên	-9.41766
▁biển	-9.42082
▁vít	-9.42395
▁nút	-9.42399
▁mây	-9.424
▁trừ	-9.42682
▁pờ	-9.43041
▁ủa	-9.43689
▁nóng	-9.43745
▁dấu	-9.44013
▁nạ	-9.44128
▁đẩy	-9.44337
▁mếch	-9.44662
▁gồ	-9.44728
▁sơn	-9.4477
▁rin	-9.44866
▁chối	-9.44992
▁khắc	-9.44992
▁giấy	-9.44993
▁thao	-9.44995
▁từn	-9.45177
▁trét	-9.45325
▁be	-9.4539
▁khứ	-9.4565
▁tan	-9.45772
▁giảng	-9.45858
▁mềm	-9.45983
▁lẻ	-9.45985
▁đê	-9.46988
▁lao	-9.47012
▁lin	-9.47026
▁chậm	-9.47318
▁miễn	-9.47653
▁lối	-9.4766
▁phô	-9.47845
▁ninh	-9.4807
▁o	-9.48145
▁khẩu	-9.48331
▁tổn	-9.48759
▁im	-9.48879
▁não	-9.49012
▁thai	-9.49389
▁cập	-9.49699
▁dét	-9.50042
▁gốc	-9.50043
▁re	-9.50129
▁hồn	-9.50819
▁thừa	-9.51085
▁mại	-9.51092
▁dơ	-9.51716
▁đo	-9.51718
▁mò	-9.5175
▁rửa	-9.51785
▁thấu	-9.51785
▁thụ	-9.52466
▁huy	-9.52709
▁phỏng	-9.53201
▁huống	-9.53201
▁lẫn	-9.53201
▁dịp	-9.53202
nh	-9.53387
▁t	-9.53422
▁mảng	-9.53558
▁thùy	-9.53569
▁lót	-9.53918
▁giấc	-9.54637
▁đoàn	-9.55
▁thuần	-9.55009
▁bí	-9.55337
▁nhi	-9.55659
▁nai	-9.55725
▁tắt	-9.5573
▁viện	-9.55734
▁tùng	-9.55741
▁lông	-9.55879
▁rượu	-9.56094
▁rèn	-9.56099
▁bạc	-9.56462
▁khối	-9.56463
▁nghiêm	-9.56464
▁gồm	-9.56492
▁phít	-9.56498
▁bổ	-9.56793
▁nửa	-9.56831
▁xít	-9.57204
▁ru	-9.57484
▁hoài	-9.57577
▁te	-9.57639
▁cơm	-9.5792
▁duyên	-9.58331
▁thơm	-9.58353
▁thịt	-9.58385
▁ke	-9.58574
▁phẩy	-9.58697
▁tái	-9.58708
▁hàn	-9.5877
▁giận	-9.59075
▁ve	-9.59411
▁nhở	-9.59453
▁úc	-9.59454
▁tri	-9.59532
▁lộ	-9.5975
▁lặng	-9.59834
▁bút	-9.59835
▁bách	-9.59839
▁thuận	-9.60216
▁chữa	-9.6064
▁lóc	-9.60983
▁tả	-9.61223
▁meo	-9.61388
c	-9.61483
▁lá	-9.62549
▁phen	-9.62602
▁phấn	-9.62928
▁rưỡi	-9.63322
▁rờ	-9.63649
▁gương	-9.63717
▁cục	-9.63747
▁nhuận	-9.64114
▁tạm	-9.64119
▁hại	-9.64172
▁quê	-9.6448
▁u	-9.64508
▁quyển	-9.64513
▁kích	-9.64514
▁tò	-9.64854
▁he	-9.64904
▁ẩm	-9.64915
▁nọ	-9.65117
▁tồn	-9.6534
▁lơ	-9.65688
▁lứa	-9.65717
▁vẽ	-9.65717
▁tốc	-9.65746
▁gọn	-9.6583
▁banh	-9.65991
▁ram	-9.66149
▁cháu	-9.66937
▁kịch	-9.66937
▁bấm	-9.66937
▁thảo	-9.67353
▁le	-9.6769
▁khôi	-9.67856
▁bảng	-9.67891
▁lờ	-9.68134
▁hấp	-9.68176
▁mâu	-9.69004
▁ắp	-9.69005
▁chăng	-9.69005
▁át	-9.69295
▁đắt	-9.69422
▁lỡ	-9.69842
▁bon	-9.70103
▁tếch	-9.7022
▁sần	-9.70268
▁tĩnh	-9.70687
▁rẻ	-9.70687
▁trần	-9.70688
▁phu	-9.71212
▁b	-9.71504
▁sóp	-9.71541
▁thiền	-9.71545
▁miếng	-9.72401
▁ngọt	-9.72401
▁nghi	-9.72826
▁tắm	-9.72836
▁túc	-9.72838
▁long	-9.73073
▁sóng	-9.73268
▁rồ	-9.73695
▁tỏ	-9.73698
▁seo	-9.7372
▁phom	-9.73913
▁kịp	-9.74143
▁rời	-9.74223
▁phối	-9.74754
▁nhé	-9.75006
▁mẽ	-9.75026
▁nguyện	-9.75471
▁nhiệt	-9.75471
▁chàng	-9.75478
▁ôm	-9.75814
▁ráp	-9.75918
▁dày	-9.75918
▁bày	-9.76021
▁gói	-9.76366
▁sữa	-9.76816
▁đằng	-9.76816
▁nguy	-9.76825
▁bơi	-9.77031
▁già	-9.77184
▁khoán	-9.77719
▁lược	-9.77724
▁ấm	-9.77725
▁óp	-9.77726
▁tươi	-9.77733
▁bối	-9.78066
▁lười	-9.7818
▁no	-9.78267
▁tải	-9.78726
▁hè	-9.79064
▁hoảng	-9.79099
▁kèm	-9.79102
▁mụn	-9.79563
▁kính	-9.79568
▁phơ	-9.79854
▁rớt	-9.80027
▁tiếc	-9.8004
▁ôi	-9.80488
▁cột	-9.80496
▁giám	-9.80538
▁rối	-9.80964
▁tren	-9.80981
▁đừn	-9.81434
▁sót	-9.81436
▁lõi	-9.8191
▁phét	-9.8191
▁tẩy	-9.8191
▁miền	-9.81917
▁khen	-9.81939
▁kh	-9.82114
▁nhạy	-9.82386
▁hiếu	-9.82387
▁tầng	-9.82389
▁ngôi	-9.82413
▁trim	-9.82419
▁nhãn	-9.82866
▁típ	-9.82887
▁kiu	-9.82961
▁ngũ	-9.83346
▁hộp	-9.83349
▁phôn	-9.83873
▁tồ	-9.84225
▁xài	-9.84323
▁ê	-9.84799
▁ngoái	-9.84801
▁bụng	-9.84811
▁phe	-9.85205
▁đì	-9.85212
▁thủy	-9.85839
▁ao	-9.85937
▁tui	-9.85995
▁chê	-9.86234
▁hót	-9.86281
▁tạp	-9.86286
▁nho	-9.86297
▁ác	-9.86603
▁trầm	-9.86777
▁ch	-9.86954
▁bắc	-9.87278
▁ngơi	-9.87282
▁vũ	-9.8774
▁dọn	-9.8778
▁xích	-9.8778
▁ngang	-9.87801
▁đinh	-9.87864
▁dạo	-9.87899
▁ng	-9.88176
▁lếch	-9.88285
▁ghêm	-9.88305
▁tỉ	-9.88421
▁hạ	-9.88525
▁rác	-9.88791
▁nốt	-9.88794
▁liệt	-9.88799
▁đám	-9.88849
▁đà	-9.89123
▁den	-9.8924
▁cãi	-9.89303
▁tách	-9.89319
ê	-9.89636
▁vét	-9.89825
▁đỉnh	-9.90331
▁khúc	-9.90331
▁điệp	-9.90372
▁lã	-9.90783
▁dừn	-9.90845
▁dương	-9.90849
▁lệch	-9.90853
▁phóng	-9.9087
▁chừng	-9.91374
▁chim	-9.91668
▁sớt	-9.91891
▁síp	-9.91893
▁nhấn	-9.91895
▁ho	-9.92023
▁phú	-9.9241
▁thoát	-9.92419
▁gấp	-9.9242
▁cứng	-9.92608
▁cưới	-9.92949
▁khấu	-9.9295
▁miệng	-9.9348
▁m	-9.93711
▁bậc	-9.94015
▁xịt	-9.94015
▁xô	-9.94035
▁phán	-9.94123
▁thoảng	-9.94186
▁lọc	-9.94555
▁thuê	-9.94595
▁đ	-9.94656
▁non	-9.94961
▁bó	-9.94981
▁lướt	-9.95637
▁trông	-9.9565
▁thả	-9.95665
▁dồi	-9.95675
▁lặp	-9.96183
▁dít	-9.96185
▁tiểu	-9.96187
▁boi	-9.96505
▁mì	-9.96689
▁mật	-9.96735
▁vỡ	-9.97286
▁tuệ	-9.97288
▁trôi	-9.97308
▁bông	-9.97456
▁phận	-9.97841
▁đèn	-9.97852
▁ừn	-9.98113
▁dai	-9.98134
▁cót	-9.98391
▁đin	-9.98541
▁màn	-9.98699
▁tủ	-9.98788
▁huyền	-9.98962
▁đấu	-9.98963
▁cấu	-9.98963
▁tốp	-9.98971
▁máu	-9.98989
▁quang	-9.99085
▁bia	-9.99447
▁ngừng	-9.99527
▁dũng	-9.99527
▁hãng	-9.99529
▁c	-9.99575
▁mu	-9.99823
▁rao	-9.99838
▁vé	-9.99897
▁khe	-9.99984
▁gợi	-10.0009
▁sung	-10.003
▁bóp	-10.0038
▁hứa	-10.0067
▁kíp	-10.0067
▁ven	-10.0117
▁đắc	-10.0124
▁pa	-10.0163
▁man	-10.0164
▁thua	-10.0197
▁nh	-10.0223
▁nơ	-10.0236
▁ngọc	-10.024
▁bích	-10.024
▁nin	-10.0262
▁quét	-10.0298
▁muộn	-10.0298
▁bốt	-10.0304
▁hải	-10.0342
▁thăm	-10.0357
▁chốt	-10.0357
▁trúc	-10.0358
▁cóp	-10.037
▁lễ	-10.0416
▁vội	-10.0416
▁khát	-10.0432
▁gai	-10.046
▁lưng	-10.0476
▁quân	-10.0476
▁hàm	-10.0486
▁hạng	-10.0547
g	-10.0563
▁hen	-10.0605
▁dính	-10.0657
▁dáng	-10.0657
▁rảnh	-10.0718
▁giãn	-10.0718
▁trồng	-10.0719
▁tỏa	-10.072
▁đát	-10.0727
▁v	-10.0748
▁khuyế	-10.0773
▁mưa	-10.0779
▁tấm	-10.0779
▁thạc	-10.0903
▁phức	-10.0903
▁nhẫn	-10.0903
▁bóc	-10.0904
▁cản	-10.0906
▁lỗ	-10.0959
▁thắc	-10.0965
▁hao	-10.0973
▁cồ	-10.0983
▁thận	-10.1028
▁kẻ	-10.1028
▁chát	-10.1028
▁đập	-10.1028
▁khoảnh	-10.1029
▁tú	-10.1076
▁dở	-10.1092
▁ghen	-10.1092
▁trơn	-10.1092
▁trinh	-10.1093
▁than	-10.1094
▁tròn	-10.1119
▁ne	-10.1153
▁chửi	-10.1155
▁tội	-10.1155
▁hét	-10.1161
▁lạm	-10.1162
▁quát	-10.1163
ềm	-10.1175
▁din	-10.1204
▁rát	-10.1207
▁lượt	-10.1219
▁quép	-10.1219
▁phiền	-10.122
▁mon	-10.1245
▁chạm	-10.1284
▁mã	-10.1303
▁miu	-10.1314
▁râu	-10.1349
▁tần	-10.1349
▁khơi	-10.1349
▁phun	-10.139
▁hối	-10.1415
▁móc	-10.148
▁tàu	-10.148
▁trọn	-10.1481
▁thang	-10.1484
▁lái	-10.1492
▁đột	-10.1495
▁tán	-10.1527
▁biu	-10.1529
▁hô	-10.153
▁ghê	-10.1544
▁sàn	-10.1546
▁thẻ	-10.1546
▁tân	-10.1547
▁chét	-10.1548
▁tiêm	-10.1556
▁đốc	-10.1613
▁trích	-10.1615
▁cốc	-10.1623
▁cơn	-10.164
▁kí	-10.1674
▁cặp	-10.168
▁quỳnh	-10.168
▁kít	-10.1681
▁chiếm	-10.1682
▁rum	-10.1685
▁bù	-10.1735
▁trụ	-10.1738
▁nộp	-10.1748
▁hạt	-10.1749
▁mũi	-10.175
▁nót	-10.1789
▁cẩn	-10.1816
▁táo	-10.1816
▁chếch	-10.1885
▁giày	-10.1888
▁bôi	-10.1921
▁chóng	-10.1956
▁đai	-10.198
▁gũi	-10.2022
▁thỉnh	-10.2022
▁dị	-10.209
▁giường	-10.2093
▁gió	-10.2114
▁dim	-10.2132
▁cởi	-10.2163
▁lích	-10.2163
▁cỡ	-10.2163
▁vinh	-10.2204
▁hò	-10.2223
▁nạn	-10.2231
▁nghèo	-10.2234
▁phao	-10.2237
▁dưng	-10.2237
▁soi	-10.225
▁tha	-10.2292
▁bề	-10.2298
▁dâu	-10.2305
▁cắp	-10.2305
▁đậm	-10.2305
▁lì	-10.2317
▁phạt	-10.2377
▁chuỗi	-10.2377
▁hít	-10.2378
▁chiếu	-10.2378
▁biên	-10.2382
▁lung	-10.2388
▁heo	-10.2452
▁nen	-10.2454
▁trưa	-10.2523
▁thỏa	-10.2523
▁hùng	-10.2523
▁vả	-10.2524
▁dịu	-10.2524
▁điển	-10.2527
▁hông	-10.2529
▁xì	-10.2595
▁đắp	-10.2596
▁lừa	-10.2596
▁giấu	-10.2597
▁khung	-10.2608
ch	-10.2637
▁dán	-10.267
▁cánh	-10.2678
▁bỗ	-10.2684
▁mực	-10.2745
▁đùa	-10.2745
▁khao	-10.2745
▁hắt	-10.2746
▁hê	-10.2746
▁chảy	-10.2755
▁dinh	-10.2757
▁tông	-10.2771
▁sông	-10.2775
▁gút	-10.282
▁sạn	-10.282
▁thuẫn	-10.282
▁nhựa	-10.2896
▁đẻ	-10.2896
▁treo	-10.2897
▁l	-10.295
▁gà	-10.2954
▁lôi	-10.2955
▁vồ	-10.2968
▁hổ	-10.3032
▁cúp	-10.3049
▁sướng	-10.3049
▁lách	-10.305
▁uy	-10.3051
▁sim	-10.3058
▁mãn	-10.3099
▁bò	-10.3129
▁cò	-10.3135
▁sam	-10.3154
▁cai	-10.3198
▁thù	-10.3205
▁lửa	-10.3205
▁ngẫm	-10.3205
▁khích	-10.3206
▁khiếp	-10.3225
▁rốt	-10.3283
▁dắt	-10.3283
▁sồ	-10.3297
▁dư	-10.3357
▁rót	-10.3363
▁xóm	-10.3363
▁niên	-10.3366
▁nao	-10.3372
▁đan	-10.3404
▁chó	-10.3429
▁đựng	-10.3523
▁say	-10.355
▁cư	-10.3615
▁xen	-10.3648
▁đắn	-10.3686
▁điệu	-10.3687
▁đảo	-10.3687
▁phớt	-10.3687
▁ghép	-10.3687
▁nát	-10.3692
▁guy	-10.3694
▁canh	-10.3701
▁tựu	-10.3755
▁nghị	-10.3769
▁mượn	-10.3769
▁óc	-10.377
▁nhầm	-10.3853
▁hận	-10.3853
▁mốc	-10.3853
▁lục	-10.3853
▁g	-10.3854
▁huyết	-10.3937
▁dĩ	-10.3939
▁iu	-10.3965
▁sứ	-10.4012
▁cử	-10.402
▁gêm	-10.4022
▁lũy	-10.4022
▁khuyết	-10.4023
▁hoang	-10.405
▁bếp	-10.4107
▁vết	-10.4107
▁sốt	-10.4151
▁tung	-10.4173
ân	-10.4178
ỗ	-10.4179
▁de	-10.4186
▁ci	-10.4192
▁vẹn	-10.4193
▁phật	-10.4193
▁khoe	-10.4193
▁cừn	-10.4193
▁đạp	-10.4194
▁nây	-10.4194
▁tuấn	-10.4195
▁chợ	-10.4243
▁đặn	-10.428
▁rích	-10.428
▁săm	-10.428
▁vất	-10.428
▁leo	-10.4282
▁mùng	-10.4282
▁sây	-10.4287
▁gót	-10.4368
▁ngăn	-10.4368
▁mẻ	-10.4456
▁kho	-10.4457
▁chay	-10.4478
▁lừn	-10.4546
▁ấp	-10.4547
▁pin	-10.4579
▁ghế	-10.4636
▁diệu	-10.4636
▁hãi	-10.4636
▁mồ	-10.4639
▁qu	-10.4661
▁nu	-10.4668
▁nga	-10.4678
▁rau	-10.4705
▁mộ	-10.4721
▁xương	-10.4727
▁dối	-10.4727
▁thăng	-10.4727
▁thiểu	-10.4727
▁lộn	-10.4734
▁thải	-10.4739
▁kẹt	-10.4818
▁pồ	-10.4818
▁đậu	-10.4818
▁đầm	-10.4818
▁mến	-10.4818
▁tấn	-10.4819
▁mỏng	-10.4819
▁kỉ	-10.482
▁thưa	-10.4826
▁hép	-10.4832
▁phiu	-10.4835
▁hư	-10.4906
ẳng	-10.4909
▁mệnh	-10.4911
▁lường	-10.4911
▁chặt	-10.4911
▁kệ	-10.4912
▁vừn	-10.4979
▁phó	-10.4999
▁lắc	-10.5004
▁ngập	-10.5005
▁dao	-10.5021
▁củ	-10.5049
▁binh	-10.505
▁thác	-10.5099
▁đúc	-10.5099
▁nhiễm	-10.5099
▁vây	-10.5099
▁sắm	-10.5099
▁rủ	-10.5105
▁kìa	-10.5106
▁phơi	-10.5113
ờ	-10.5116
▁lân	-10.5194
▁ních	-10.5194
▁núi	-10.5194
▁rào	-10.5194
▁ốm	-10.5194
▁hiếm	-10.5194
▁cay	-10.5247
▁ồn	-10.5284
▁rúp	-10.529
▁cường	-10.529
▁nghiện	-10.529
▁bực	-10.529
▁bầu	-10.529
▁bốc	-10.5297
▁dồ	-10.5366
ọp	-10.5384
▁gội	-10.5387
▁nhạt	-10.5387
▁hiến	-10.5387
▁chênh	-10.5389
▁nhét	-10.539
▁đài	-10.5401
▁lon	-10.5435
▁phin	-10.544
▁tre	-10.5481
▁muối	-10.5485
▁loạn	-10.5492
▁ngu	-10.5584
▁triết	-10.5585
▁rộn	-10.5585
▁gien	-10.5585
▁xoay	-10.5585
▁ẩn	-10.5586
▁cáp	-10.5587
▁chinh	-10.56
▁điên	-10.5626
▁thấm	-10.5684
▁dích	-10.5684
▁chở	-10.5684
▁tường	-10.5684
▁lâm	-10.5685
▁băng	-10.5685
▁neo	-10.5686
▁po	-10.569
▁lỏng	-10.5785
▁xịn	-10.5785
▁trưng	-10.5785
▁my	-10.579
▁ngã	-10.5791
▁né	-10.588
▁lắp	-10.5887
▁thuế	-10.5889
▁móng	-10.5893
▁chua	-10.5894
▁tím	-10.5903
▁đao	-10.5903
▁cọ	-10.5911
▁vở	-10.599
▁thỏi	-10.5994
ây	-10.5997
▁tr	-10.5998
▁mông	-10.6065
▁cú	-10.6075
▁vĩ	-10.6094
▁ảo	-10.6095
▁chuông	-10.6095
▁lệnh	-10.6098
▁ung	-10.6104
▁gơ	-10.6196
▁ngực	-10.62
▁khuôn	-10.62
▁hôi	-10.6213
▁nan	-10.6253
▁đe	-10.63
▁r	-10.6305
▁thánh	-10.6306
▁hiển	-10.6306
▁mích	-10.6306
▁hiền	-10.6307
▁gâu	-10.6316
▁béo	-10.6322
▁quai	-10.6382
▁chăn	-10.6413
▁mộng	-10.6418
▁tràn	-10.6426
▁hau	-10.6436
▁họp	-10.6441
▁sốc	-10.6451
ạp	-10.6461
▁cống	-10.6511
▁thà	-10.6516
▁cương	-10.6522
▁thẩm	-10.6522
▁thập	-10.6522
▁cắm	-10.6523
▁que	-10.6603
▁dặn	-10.6632
▁thâm	-10.6632
▁mạch	-10.6632
▁lốc	-10.6633
▁guốc	-10.6633
▁uyên	-10.6633
▁nếch	-10.6744
▁cúc	-10.6744
▁trào	-10.6746
▁tôm	-10.6769
▁bá	-10.6772
▁trữ	-10.6856
▁trận	-10.6856
▁khắp	-10.6856
▁lớt	-10.6856
▁út	-10.6857
▁tuyến	-10.6857
▁tót	-10.6857
▁giật	-10.6857
ài	-10.6861
▁túng	-10.6863
▁bột	-10.6882
▁gan	-10.6929
▁xóa	-10.6969
▁bão	-10.697
▁thúy	-10.6995
▁lam	-10.7003
▁phước	-10.7084
▁bắp	-10.7084
▁mèo	-10.7085
▁vớt	-10.7085
▁tật	-10.7085
▁truy	-10.7086
▁bào	-10.7093
▁ồ	-10.7112
óm	-10.7169
▁ron	-10.7184
▁nổ	-10.7194
▁xả	-10.72
▁trốn	-10.72
▁quãng	-10.7201
▁phở	-10.7318
▁rếch	-10.7318
▁trễ	-10.7318
▁sạc	-10.7318
▁dứt	-10.7318
▁nghịch	-10.7319
▁rừng	-10.7319
▁nén	-10.7322
▁thuyền	-10.7437
▁bạo	-10.7438
p	-10.746
ì	-10.7481
▁họa	-10.7481
▁mác	-10.7547
▁khuya	-10.7558
▁vứt	-10.7558
▁đâm	-10.7558
▁hưng	-10.7564
▁chì	-10.7588
▁roi	-10.7595
▁cán	-10.7612
▁tù	-10.7612
▁tiệc	-10.768
▁pát	-10.768
▁nản	-10.768
▁yến	-10.768
▁trống	-10.768
▁đếm	-10.7681
▁đàm	-10.7686
▁bùng	-10.7687
▁tơn	-10.7746
▁ngưỡng	-10.7803
▁nhủ	-10.7803
▁dẹp	-10.7803
▁giặt	-10.7804
▁ống	-10.7804
▁dì	-10.7805
▁tua	-10.7846
▁vườn	-10.7928
▁ân	-10.7931
▁tị	-10.7941
▁cớt	-10.8054
▁xăng	-10.8055
▁nhắm	-10.8055
▁deo	-10.8056
▁tuyết	-10.8056
▁keo	-10.8058
ẩn	-10.8065
ụ	-10.8086
▁dời	-10.8111
▁thờ	-10.8176
▁bì	-10.8181
▁rừn	-10.8183
▁ngạc	-10.8183
▁cháy	-10.8183
▁trứng	-10.8183
▁đẳng	-10.8184
▁chìm	-10.8186
▁quýt	-10.8194
êm	-10.8241
▁dê	-10.8313
▁dát	-10.8315
▁ran	-10.8358
▁ngô	-10.8425
▁hoãn	-10.8444
▁quận	-10.8444
▁đụng	-10.8444
▁hiệp	-10.8445
▁noi	-10.8466
uấn	-10.8477
▁ranh	-10.8508
▁tó	-10.8521
▁thèm	-10.8578
▁nhịp	-10.8578
▁tộc	-10.8578
▁ngoan	-10.8578
▁lùi	-10.8578
▁tớ	-10.8705
▁thắn	-10.8712
▁dường	-10.8713
▁sút	-10.8713
▁bạch	-10.8713
▁chánh	-10.8714
▁hóc	-10.8714
▁đáo	-10.8718
▁đua	-10.8721
▁trít	-10.8802
▁kha	-10.8843
▁gánh	-10.885
▁ngắm	-10.885
▁lão	-10.8852
ên	-10.8857
▁thịnh	-10.8868
▁thọ	-10.8891
▁chặ	-10.8914
▁trú	-10.8946
ô	-10.8968
▁trộm	-10.8989
▁trộn	-10.8989
▁căm	-10.8989
▁dược	-10.8989
▁trây	-10.8989
▁chép	-10.8989
▁sập	-10.8989
▁sâm	-10.899
▁láp	-10.899
▁đốt	-10.899
▁chíp	-10.8993
▁tiu	-10.8999
▁phái	-10.9048
e	-10.9115
▁sôi	-10.9127
▁dọc	-10.913
▁bám	-10.9133
▁chanh	-10.914
▁bum	-10.9145
▁vang	-10.9153
ật	-10.9157
▁tụ	-10.9258
▁nề	-10.9269
▁mượt	-10.9272
▁nhỉ	-10.9273
▁ức	-10.9273
▁soạn	-10.9289
▁tun	-10.9372
▁mặn	-10.9418
▁liều	-10.9418
▁mịn	-10.9418
▁buông	-10.9419
▁hâu	-10.9419
▁băn	-10.9564
▁chóp	-10.9564
▁nở	-10.9565
▁nêu	-10.9566
▁dã	-10.9574
▁khoan	-10.9597
▁x	-10.9654
▁nê	-10.9709
ướng	-10.9711
▁phếch	-10.9714
▁khoăn	-10.9714
▁vỏ	-10.9714
▁khéo	-10.9714
▁mổ	-10.9714
▁nến	-10.9714
▁cất	-10.9714
▁mần	-10.9714
▁rách	-10.9714
▁hốt	-10.9715
▁giơ	-10.9716
▁lơn	-10.9727
▁run	-10.9727
▁bừn	-10.9807
▁dỗ	-10.9858
▁nhặt	-10.9865
▁dừa	-10.9865
▁đống	-10.9869
▁han	-10.9939
▁tia	-10.9939
ần	-10.9948
▁d	-11.0006
âm	-11.0008
▁lăn	-11.0019
▁dép	-11.0019
▁ruột	-11.0019
▁tịch	-11.0019
▁váy	-11.002
▁trùng	-11.0022
▁khiêm	-11.0077
▁gạch	-11.0175
▁thóc	-11.0175
▁rép	-11.0176
▁mút	-11.0176
▁nắp	-11.0176
▁bọt	-11.0176
▁hâm	-11.0178
▁chơ	-11.0197
▁mù	-11.0202
▁buôn	-11.0334
▁hắn	-11.0334
▁hỏng	-11.0334
▁gạo	-11.0334
▁đuối	-11.0334
▁úp	-11.0335
▁bẩn	-11.0335
▁dạn	-11.0337
▁kín	-11.0342
▁nồng	-11.0354
▁ham	-11.0394
▁chứa	-11.0421
▁mảnh	-11.0495
▁pích	-11.0495
▁vặt	-11.0496
▁đớn	-11.0496
▁pê	-11.0496
▁hủy	-11.0497
▁chiêu	-11.0497
▁gom	-11.0498
▁lộc	-11.0498
▁biếng	-11.0502
▁bỉ	-11.0539
▁cỏ	-11.0652
▁ghé	-11.0658
▁thầm	-11.0659
▁rắc	-11.0659
▁lết	-11.066
▁pô	-11.0661
▁gen	-11.0662
▁vy	-11.0666
▁vải	-11.0676
▁nhánh	-11.068
▁đè	-11.0707
▁đãi	-11.0715
▁rê	-11.0726
▁ph	-11.0747
▁chan	-11.079
▁truyện	-11.0826
▁kịt	-11.0826
▁súp	-11.0826
▁ớt	-11.0827
▁tụt	-11.0827
▁đàng	-11.0843
▁lum	-11.0844
pơ	-11.0847
▁tru	-11.0938
▁go	-11.096
▁chôn	-11.0979
▁cấm	-11.0996
▁kiều	-11.0996
▁mầm	-11.0996
▁lăng	-11.0996
▁then	-11.0996
▁bãi	-11.1
▁thùng	-11.1004
eo	-11.1034
▁kẹo	-11.1168
▁đĩa	-11.1168
▁dốt	-11.1168
▁trắc	-11.1168
▁lấp	-11.1168
▁rinh	-11.1169
▁thiệp	-11.1169
▁giết	-11.1169
▁khoáng	-11.1169
▁phót	-11.117
▁gét	-11.1176
▁rem	-11.1181
▁chít	-11.1198
▁đố	-11.1327
▁trô	-11.1329
▁xứ	-11.1339
▁viễn	-11.1343
▁tiệm	-11.1343
▁nẵng	-11.1343
▁nhậu	-11.1344
▁ngắt	-11.1344
▁sấy	-11.1344
▁hở	-11.1347
▁nôm	-11.1395
ập	-11.141
▁tàn	-11.1436
▁lim	-11.1502
▁thô	-11.1527
▁khiển	-11.1529
▁cưng	-11.153
▁kép	-11.157
▁bội	-11.1658
▁hu	-11.1697
▁ngộ	-11.1703
▁mớt	-11.1703
▁sụp	-11.1704
▁tháp	-11.1704
▁ngào	-11.1704
▁lúa	-11.1704
▁rãi	-11.1705
▁trục	-11.1705
▁miêu	-11.1706
▁rơ	-11.1719
ắm	-11.1745
▁vịt	-11.1763
▁chang	-11.1773
ếp	-11.1808
▁trọ	-11.1819
▁ngọn	-11.1828
▁dấ	-11.1842
▁don	-11.1888
▁dàn	-11.1889
▁thoáng	-11.1889
▁trại	-11.1889
▁triệt	-11.1889
▁gấu	-11.1889
▁mót	-11.1889
▁tướng	-11.189
▁tớt	-11.1891
▁phích	-11.1893
▁lạt	-11.1896
▁tòa	-11.1897
▁xí	-11.1904
▁cổng	-11.1944
▁lang	-11.1972
▁chui	-11.1988
▁chặn	-11.2071
▁tráng	-11.2078
▁vương	-11.2078
▁nớt	-11.2078
▁nướng	-11.2079
▁guyn	-11.2086
▁hỗn	-11.2119
▁lay	-11.2129
ơ	-11.213
▁p	-11.2147
▁mí	-11.2264
▁gát	-11.227
▁mỡ	-11.227
▁quin	-11.227
▁vấp	-11.227
▁chuối	-11.227
▁lốt	-11.2271
▁ngây	-11.2271
▁tựa	-11.2272
ép	-11.2302
▁bụ	-11.2346
▁loa	-11.2357
▁bún	-11.2412
▁vu	-11.2429
▁thỏ	-11.2457
▁bắn	-11.2466
▁ốp	-11.2466
▁bẩy	-11.2466
▁bâu	-11.2467
▁tịt	-11.2467
▁xoa	-11.2468
▁ném	-11.2471
▁rung	-11.2487
âu	-11.2622
▁trội	-11.2666
▁gãy	-11.2666
▁xép	-11.2666
▁lùng	-11.2667
▁sáp	-11.2667
▁kiệt	-11.2667
▁hước	-11.2668
▁giành	-11.267
▁chiết	-11.2671
▁chích	-11.2674
▁thoa	-11.2674
▁êm	-11.2681
ét	-11.2697
▁th	-11.2775
▁phì	-11.2792
ếm	-11.2859
▁bọc	-11.287
▁nhường	-11.287
▁trâu	-11.287
▁vo	-11.2871
▁chớt	-11.2873
▁voi	-11.2877
▁lọ	-11.2878
▁sanh	-11.2896
ấu	-11.2898
▁đôn	-11.2936
▁tạ	-11.3037
ừa	-11.3061
▁trăn	-11.3078
▁thượng	-11.3078
▁nuối	-11.3078
▁ếch	-11.3079
▁tháo	-11.3079
▁gỗ	-11.3079
▁hẹp	-11.3079
▁sốp	-11.3097
▁khiếu	-11.3101
▁xôi	-11.3107
▁côn	-11.3111
▁rim	-11.3138
▁ào	-11.3153
▁phon	-11.3182
▁ổ	-11.3192
▁ráng	-11.3291
▁gối	-11.3291
▁bể	-11.3292
▁mắm	-11.3292
▁đắng	-11.3292
▁bến	-11.3293
▁cút	-11.3293
▁thảm	-11.3302
▁lau	-11.3325
▁gián	-11.3385
▁hang	-11.3408
▁goa	-11.3409
▁tho	-11.3447
▁lí	-11.3463
à	-11.3469
▁quỳ	-11.3501
ôi	-11.3506
ảy	-11.3507
▁thước	-11.3509
▁chấn	-11.3509
▁chuột	-11.3509
▁châm	-11.3509
▁đết	-11.351
ầu	-11.351
▁vua	-11.351
▁ốc	-11.3511
▁thôn	-11.3512
▁gon	-11.3513
▁chót	-11.3515
▁van	-11.3526
▁chin	-11.3532
▁điền	-11.3547
ấp	-11.3548
▁mau	-11.3559
in	-11.3589
▁chải	-11.3596
ất	-11.3654
▁cồn	-11.3705
ằm	-11.3729
▁dớt	-11.3731
▁phẳng	-11.3731
▁sắt	-11.3732
▁hớt	-11.3732
▁ngón	-11.3732
▁lọt	-11.3732
▁lánh	-11.3735
▁mắng	-11.3736
▁gàng	-11.3742
▁tem	-11.3747
▁cun	-11.3756
▁siu	-11.3874
▁cong	-11.3875
▁bồn	-11.3944
▁mũ	-11.3951
▁quầy	-11.3958
▁nhức	-11.3958
▁sịt	-11.3958
▁trấn	-11.3958
▁vầng	-11.3958
▁khép	-11.3959
▁loạt	-11.3959
▁mạn	-11.396
▁sợi	-11.3977
▁dan	-11.3978
▁chúa	-11.3997
ọt	-11.4022
▁bồi	-11.4033
▁xạ	-11.4049
▁chà	-11.4134
ết	-11.4165
áp	-11.4177
▁dò	-11.4187
▁vươn	-11.419
▁cắn	-11.4191
▁bướm	-11.4191
▁phẫu	-11.4191
▁vần	-11.4191
▁vắc	-11.4191
▁bết	-11.4192
▁nách	-11.4192
▁dôn	-11.4193
▁bùi	-11.4216
ó	-11.4232
ắt	-11.4236
▁lụ	-11.4237
▁vã	-11.4242
▁sun	-11.4269
ải	-11.4291
▁đót	-11.4305
ừn	-11.4318
▁chô	-11.4349
▁vựng	-11.4429
▁kĩ	-11.4429
▁thót	-11.4429
▁quăng	-11.4429
▁vạch	-11.4429
▁cậy	-11.4429
▁pết	-11.4429
▁ngầm	-11.4429
▁đệm	-11.4429
▁khâu	-11.4429
▁xách	-11.4432
▁khan	-11.4434
▁kiềm	-11.4435
▁tam	-11.4439
▁cua	-11.4443
▁đun	-11.4455
▁khôn	-11.4456
ốc	-11.4478
▁lui	-11.4498
▁sò	-11.4514
ai	-11.4515
▁ủ	-11.4659
▁nhục	-11.4673
▁mọc	-11.4673
▁gắm	-11.4673
▁đoan	-11.4673
▁xào	-11.4673
▁luồng	-11.4674
▁rụng	-11.4675
▁hoành	-11.468
▁hiu	-11.4687
▁ton	-11.4692
▁gam	-11.4711
▁chiu	-11.4767
▁té	-11.4771
á	-11.4778
ồng	-11.4844
õ	-11.4906
▁trù	-11.4916
▁bự	-11.4922
▁phường	-11.4923
▁nhỡ	-11.4923
▁đứt	-11.4923
▁lấn	-11.4923
▁phiêu	-11.4924
▁nàng	-11.4925
▁gôn	-11.4942
▁manh	-11.4954
▁nhát	-11.4964
ái	-11.4981
▁mỉ	-11.501
▁mạ	-11.5142
▁ngẫ	-11.5153
▁nhị	-11.5175
▁rết	-11.5179
▁rệt	-11.5179
▁thạo	-11.5179
▁rỡ	-11.5179
▁thép	-11.5179
▁súc	-11.5179
▁gắt	-11.5179
▁méo	-11.518
▁ngâm	-11.518
▁chật	-11.518
▁nần	-11.5181
▁pheo	-11.5184
▁vong	-11.5184
ế	-11.5187
▁nem	-11.519
pây	-11.5198
▁lanh	-11.5202
▁đáy	-11.5206
▁ui	-11.5225
ời	-11.5259
▁trương	-11.5442
▁đẽ	-11.5442
▁róp	-11.5442
▁hụt	-11.5442
▁ưa	-11.5443
▁bẩm	-11.5443
▁bấy	-11.5443
▁giùm	-11.5443
▁ngợi	-11.5443
▁hế	-11.5444
▁xám	-11.5445
▁lò	-11.5446
▁hưu	-11.5447
▁nhãng	-11.5448
▁ủi	-11.5448
▁cốp	-11.5453
▁tòi	-11.5491
▁loan	-11.5514
▁ngoặ	-11.5592
▁riu	-11.5629
ới	-11.5664
▁bã	-11.5704
▁xá	-11.5707
▁ngửi	-11.5712
▁chuộng	-11.5712
▁rỗi	-11.5712
▁trượt	-11.5712
▁sếch	-11.5713
▁chước	-11.5713
▁thòi	-11.5713
▁nết	-11.5714
▁vĩnh	-11.5714
▁xỉn	-11.5716
▁hơ	-11.5718
▁thổi	-11.5718
▁hân	-11.5719
▁cúng	-11.5723
ợc	-11.5789
ít	-11.5817
▁lẹ	-11.5873
▁lồ	-11.5894
h	-11.5914
ói	-11.596
▁bệ	-11.5974
ẻ	-11.5982
▁gò	-11.5987
▁kẹp	-11.599
▁địch	-11.599
▁vắng	-11.599
▁rỗng	-11.599
▁chẽ	-11.599
▁vặn	-11.599
▁xơ	-11.5991
▁cen	-11.5991
▁mập	-11.5991
▁lật	-11.5991
▁yết	-11.5992
▁bới	-11.5992
▁hầm	-11.5992
▁chén	-11.5993
▁lồng	-11.5994
▁tút	-11.5995
▁teo	-11.5998
▁xỉ	-11.6017
▁chớ	-11.6036
▁bom	-11.6047
▁hoay	-11.6052
▁bôn	-11.6068
▁nôn	-11.6098
▁phừn	-11.6098
▁xui	-11.612
▁liu	-11.6128
▁ge	-11.6237
▁trồ	-11.6268
▁ngứa	-11.6276
▁lưỡi	-11.6276
▁lưới	-11.6276
▁gớt	-11.6276
▁rũ	-11.6276
▁suôn	-11.6276
▁xâm	-11.6276
▁chắt	-11.6277
▁ngụy	-11.6277
▁ầm	-11.6278
▁võ	-11.6289
▁bun	-11.6316
▁gay	-11.6317
▁nhung	-11.6349
▁xay	-11.6352
▁dại	-11.6379
ắc	-11.6406
rực	-11.642
ồi	-11.643
ay	-11.6539
▁tá	-11.6548
▁nhã	-11.6563
ước	-11.6564
▁the	-11.6566
▁cớ	-11.657
▁bẫy	-11.657
▁trạm	-11.657
▁gầy	-11.657
▁lốp	-11.657
▁thoái	-11.657
▁dóp	-11.657
▁vuông	-11.657
▁khoát	-11.657
▁lợn	-11.657
▁khùng	-11.6571
▁xạo	-11.6571
▁đuôi	-11.6571
▁rè	-11.6572
▁táp	-11.6572
▁nhịn	-11.6574
▁dưa	-11.6576
▁đếch	-11.658
▁nghiêng	-11.6582
ông	-11.6722
▁cạc	-11.676
▁bộn	-11.6826
▁doi	-11.6864
ỷ	-11.6872
▁sụt	-11.6873
▁nguyệt	-11.6873
▁rốc	-11.6873
▁dập	-11.6873
▁chùa	-11.6874
▁đùi	-11.6875
▁beo	-11.6882
▁hổng	-11.6889
▁nhăn	-11.6919
▁phôi	-11.694
▁ché	-11.6943
▁nhờn	-11.6945
▁moi	-11.6979
▁tứ	-11.7015
▁mini	-11.7043
▁hé	-11.7138
ẩm	-11.7182
▁ruộng	-11.7186
▁nhượng	-11.7186
▁thắt	-11.7186
▁ương	-11.7186
▁ngầu	-11.7186
▁ướt	-11.7186
▁nể	-11.7187
▁ngưng	-11.7187
▁phách	-11.719
▁túy	-11.7198
▁chảnh	-11.7199
▁rôn	-11.7303
▁bón	-11.7329
ậm	-11.7378
▁nhàn	-11.7385
▁nàn	-11.7446
▁giu	-11.7492
▁sừ	-11.7501
▁khớp	-11.7508
▁lận	-11.7508
▁niềng	-11.7508
▁dọa	-11.7508
▁huyện	-11.7508
▁bếch	-11.7509
▁mạc	-11.7509
▁léo	-11.7509
▁chéo	-11.7509
▁vạn	-11.751
▁pen	-11.7512
▁reo	-11.7516
▁há	-11.7519
ể	-11.7552
ẹt	-11.7629
▁dia	-11.763
▁quẹ	-11.7737
▁chỉn	-11.7764
▁bả	-11.7776
▁nhan	-11.7819
▁lé	-11.7825
▁gớm	-11.7841
▁đíp	-11.7842
▁rễ	-11.7842
▁khoác	-11.7842
▁đọng	-11.7842
▁xưng	-11.7842
▁ngỡ	-11.7842
▁khoái	-11.7842
▁dâm	-11.7842
▁mộc	-11.7844
▁chợt	-11.7846
▁phanh	-11.7858
▁riết	-11.7859
▁viêm	-11.7894
▁rụ	-11.791
▁bơn	-11.7921
▁dui	-11.7952
ền	-11.7992
ấy	-11.8023
pốt	-11.8054
▁phàn	-11.8055
▁ná	-11.8068
át	-11.8105
▁vớ	-11.8179
▁nhì	-11.8184
▁vế	-11.8186
▁giỡn	-11.8186
▁ngửa	-11.8186
▁trệ	-11.8186
▁măng	-11.8187
▁đạm	-11.8187
▁chọc	-11.8187
▁cạo	-11.8187
▁guốt	-11.8188
▁bần	-11.8188
▁cọc	-11.8189
▁tàng	-11.8189
▁ốt	-11.8189
▁thục	-11.8193
▁chiên	-11.8197
▁hái	-11.8198
▁dỗi	-11.8203
▁lun	-11.8234
▁bói	-11.8235
▁hoi	-11.8237
ao	-11.827
▁phím	-11.8282
▁hoan	-11.8295
▁gin	-11.8297
▁vá	-11.837
▁bén	-11.8418
ớ	-11.8438
ốt	-11.8484
▁chè	-11.85
ũ	-11.8525
▁đế	-11.8537
▁thổ	-11.8537
▁dè	-11.8543
▁huệ	-11.8543
▁quậy	-11.8544
▁thốn	-11.8544
▁xăm	-11.8544
▁gừn	-11.8544
▁quế	-11.8544
▁quẩn	-11.8544
▁ngừa	-11.8544
▁hức	-11.8545
▁khuẩn	-11.8547
▁háp	-11.8548
▁goai	-11.8554
▁mồm	-11.8554
▁bùn	-11.8562
▁loi	-11.8577
▁sợt	-11.8597
en	-11.8609
▁điu	-11.8615
▁dẫ	-11.8684
ột	-11.8688
▁kè	-11.8746
ờn	-11.8802
▁bời	-11.8896
▁vãn	-11.8896
▁lũ	-11.8908
án	-11.8908
▁nhai	-11.8909
▁bế	-11.891
▁rắn	-11.8914
▁tiễn	-11.8914
▁xắn	-11.8914
▁dội	-11.8914
▁gạt	-11.8914
▁lép	-11.8915
▁cạn	-11.8915
▁đặng	-11.8916
▁miệt	-11.8918
▁ưng	-11.8918
óp	-11.8922
▁đong	-11.8956
▁nhũ	-11.9068
▁thề	-11.9075
ách	-11.9175
áo	-11.9259
▁giỏ	-11.9292
▁huỳnh	-11.9298
▁lưỡng	-11.9298
▁thắp	-11.9299
▁dẻo	-11.9299
▁trêu	-11.9299
▁nghiệt	-11.9299
▁búp	-11.9299
▁nhẽo	-11.9299
▁rành	-11.9299
▁cựu	-11.9299
▁sép	-11.93
▁ngột	-11.9301
▁duyệt	-11.9301
▁báu	-11.9304
ến	-11.9387
▁mẹo	-11.9411
▁hệt	-11.9419
▁vơi	-11.9457
▁bỏng	-11.9567
▁toi	-11.959
ưng	-11.9603
▁đù	-11.9611
▁mé	-11.964
▁xà	-11.9688
▁lố	-11.969
ỡ	-11.969
▁xoáy	-11.9698
▁ríp	-11.9698
▁đục	-11.9698
▁rẽ	-11.9699
▁triều	-11.9699
▁cướp	-11.9699
▁vượng	-11.9699
▁dốc	-11.9699
▁vọt	-11.9699
▁sầm	-11.9699
▁trăng	-11.9699
▁xáo	-11.97
▁ngách	-11.97
▁vát	-11.97
▁lâng	-11.97
▁lột	-11.971
▁nạt	-11.9711
▁vao	-11.9713
▁vích	-11.9735
▁mòn	-11.9739
ề	-11.9745
úng	-11.9784
▁sia	-11.98
▁khỉ	-11.9841
ứt	-11.9857
óc	-11.9937
▁sum	-11.9956
▁bú	-11.9994
▁khoai	-12.002
▁ké	-12.0031
▁nhả	-12.0089
▁hỏa	-12.0115
▁gộp	-12.0115
▁rạch	-12.0115
▁lõng	-12.0115
▁huế	-12.0115
▁trặc	-12.0115
▁mẫn	-12.0115
▁ráo	-12.0115
▁nịt	-12.0115
▁rần	-12.0116
▁sói	-12.0116
▁chây	-12.0118
▁giọt	-12.0119
▁mía	-12.0119
▁trùm	-12.012
▁rom	-12.0165
▁oan	-12.0182
▁điêu	-12.0182
▁rà	-12.0221
út	-12.0255
on	-12.0255
uồng	-12.0271
▁hờ	-12.031
▁điềm	-12.0336
▁ló	-12.0355
ừ	-12.0434
ầm	-12.0481
ếu	-12.0504
ỉ	-12.0536
▁mỏ	-12.0539
ạo	-12.0541
▁rộ	-12.0542
▁pe	-12.0546
▁trơ	-12.0547
▁gác	-12.055
▁đòn	-12.0551
▁gép	-12.0551
▁ngùng	-12.0551
▁nấm	-12.0551
▁cháo	-12.0551
▁geo	-12.0552
▁hóp	-12.0553
▁diệt	-12.0554
▁chèn	-12.0554
▁hủ	-12.0566
▁phốt	-12.0574
▁mun	-12.0578
▁lem	-12.058
▁cúi	-12.0581
▁giáp	-12.0585
▁xé	-12.0586
▁nhang	-12.0587
▁bênh	-12.0602
▁chừ	-12.0604
▁mao	-12.0609
í	-12.0656
▁rôm	-12.0679
an	-12.0691
oi	-12.0717
▁sưng	-12.0737
▁ngó	-12.0843
ác	-12.0913
▁dang	-12.0932
▁chủng	-12.0948
▁ghe	-12.1001
▁séc	-12.1004
▁múa	-12.1004
▁sương	-12.1005
▁muôn	-12.1005
▁sích	-12.1005
▁quít	-12.1005
▁thạch	-12.1005
▁lút	-12.1005
▁khờ	-12.1008
▁pu	-12.1009
▁gào	-12.101
▁choáng	-12.101
▁bìa	-12.1011
▁tạng	-12.1013
▁cỏi	-12.1025
▁von	-12.106
▁chun	-12.1065
▁pham	-12.1077
▁sừng	-12.1083
▁dơi	-12.1103
▁tro	-12.1105
▁phổi	-12.1161
ăm	-12.1165
êng	-12.1293
▁lè	-12.1298
ớt	-12.1355
ặt	-12.1378
▁dí	-12.1446
ắp	-12.1469
ếc	-12.1477
▁chuyền	-12.1481
▁quỵ	-12.1481
▁trãi	-12.1481
▁địt	-12.1481
▁mưu	-12.1481
▁xoài	-12.1481
▁đạc	-12.1481
▁thét	-12.1481
▁phâu	-12.1481
▁gừng	-12.1481
▁quơ	-12.1481
▁trát	-12.1482
▁đần	-12.1482
▁chưng	-12.1482
▁mân	-12.1483
▁kiếp	-12.149
▁bèo	-12.1516
▁trịnh	-12.1571
▁phà	-12.1621
▁mia	-12.1674
▁khói	-12.1812
▁đồn	-12.1847
▁thon	-12.1898
▁nà	-12.1931
ổ	-12.1955
▁nghẽn	-12.1981
▁rứa	-12.1981
▁dợ	-12.1981
▁ngựa	-12.1981
▁rổ	-12.1981
▁róc	-12.1981
▁dào	-12.1981
▁nuốt	-12.1981
▁sáo	-12.1982
▁ngốc	-12.1982
▁quây	-12.1982
▁xát	-12.1983
▁yếm	-12.1983
▁giũ	-12.1984
▁tuyền	-12.1984
▁mịt	-12.199
▁đành	-12.1992
▁dâng	-12.2
▁gao	-12.2006
▁hèn	-12.2021
▁gua	-12.2028
▁cày	-12.2043
▁phông	-12.2046
▁bung	-12.2063
ấm	-12.2117
êu	-12.2142
▁xồ	-12.2149
▁sì	-12.2208
▁bạ	-12.2217
▁hun	-12.2269
▁tom	-12.2291
▁ván	-12.2307
▁toan	-12.2343
ùng	-12.236
ặc	-12.2418
▁cù	-12.2499
ưởng	-12.2503
▁kẽ	-12.2504
▁lề	-12.2506
▁nhẽ	-12.2506
▁chốn	-12.2507
▁thợ	-12.2507
▁khuynh	-12.2507
▁guýt	-12.2507
▁dặm	-12.2507
▁buýt	-12.2507
▁lùn	-12.2507
▁quạt	-12.2507
▁trót	-12.2507
▁vuốt	-12.2507
▁xước	-12.2507
▁sỏi	-12.2507
▁phết	-12.2508
▁trật	-12.2508
▁thốt	-12.2511
▁đính	-12.2514
▁lở	-12.2528
èo	-12.2545
▁thụy	-12.2545
▁mè	-12.2548
▁láng	-12.2561
▁hin	-12.2579
▁chững	-12.2664
▁hố	-12.2675
ủa	-12.284
ối	-12.2845
ẫu	-12.2886
▁sui	-12.292
hút	-12.2973
▁khẩ	-12.2983
▁nôi	-12.3058
▁tuýp	-12.3062
▁tắn	-12.3062
▁xộn	-12.3063
▁ươm	-12.3063
▁gáy	-12.3063
▁cấn	-12.3063
▁vắt	-12.3064
▁gân	-12.3064
▁giòn	-12.3065
▁câm	-12.3065
▁mói	-12.3066
▁mãnh	-12.307
▁khang	-12.3079
▁pinh	-12.3085
▁um	-12.31
▁đon	-12.3121
▁rỉ	-12.3129
▁khiết	-12.3185
▁tà	-12.3279
iờ	-12.3306
▁dun	-12.3428
▁chọ	-12.349
ại	-12.355
▁thản	-12.3554
ơi	-12.3556
▁khư	-12.3564
▁suố	-12.3604
▁ngả	-12.3635
▁lặn	-12.3651
▁đảng	-12.3651
▁sẹo	-12.3651
▁trán	-12.3651
▁dóc	-12.3651
▁giục	-12.3651
▁bậy	-12.3651
▁nhóc	-12.3652
▁trớt	-12.3652
▁gán	-12.3652
▁ngục	-12.3652
▁mết	-12.3652
▁lầu	-12.3652
▁nếm	-12.3654
▁cự	-12.3657
▁xờ	-12.369
▁ka	-12.3692
▁mồi	-12.3702
▁mớ	-12.3707
▁ạt	-12.3754
ệt	-12.3758
ẹp	-12.3761
▁xế	-12.3788
▁xù	-12.3848
ót	-12.3886
▁giô	-12.3929
iềm	-12.4072
iu	-12.409
pừn	-12.4259
ặn	-12.4272
▁cưỡng	-12.4276
▁nhọn	-12.4276
▁phượng	-12.4276
▁dằn	-12.4276
▁rầy	-12.4276
▁dót	-12.4276
▁rầm	-12.4276
▁hốp	-12.4276
▁tăn	-12.4276
▁thâu	-12.4276
▁xót	-12.4276
▁đạn	-12.4277
▁sủa	-12.4277
▁ngất	-12.4277
▁hoại	-12.4277
▁vâu	-12.4277
▁vác	-12.4277
▁tắp	-12.4277
▁hường	-12.4278
▁ót	-12.4278
▁lụt	-12.4278
▁tì	-12.4279
▁súng	-12.4279
▁liêu	-12.4288
▁hên	-12.4304
▁siết	-12.4307
▁bua	-12.4322
ẫm	-12.437
▁quyế	-12.4376
▁thinh	-12.4378
▁xuyế	-12.4506
ấn	-12.4544
ầy	-12.4558
▁vun	-12.4607
▁chù	-12.4611
▁víu	-12.4623
ồ	-12.4696
▁bịt	-12.4787
ạt	-12.4788
▁ngụ	-12.4826
íu	-12.491
▁giềng	-12.4942
▁lẫy	-12.4942
▁xoăn	-12.4942
▁nấc	-12.4942
▁múi	-12.4942
▁pếch	-12.4942
▁nhuộm	-12.4943
▁lậu	-12.4943
▁goát	-12.4943
▁nhích	-12.4943
▁hãm	-12.4944
▁diều	-12.4944
▁tăm	-12.4944
▁nứt	-12.4944
▁oải	-12.4944
▁í	-12.4945
▁đới	-12.4947
▁tron	-12.4948
▁xò	-12.4949
▁cành	-12.4969
▁chao	-12.4979
▁bái	-12.4996
híp	-12.5003
▁gun	-12.5073
ử	-12.5145
▁cạ	-12.5186
ường	-12.5243
ọc	-12.542
▁thê	-12.5534
uyên	-12.5544
▁lú	-12.5599
▁nộ	-12.565
▁mợ	-12.5656
▁uốn	-12.5656
▁liễu	-12.5657
▁quích	-12.5657
▁rể	-12.5657
▁thắm	-12.5657
▁chớp	-12.5658
▁đoạt	-12.5658
▁ỏi	-12.5658
▁mứt	-12.5658
▁nhột	-12.5658
▁dầm	-12.5658
▁rập	-12.5658
▁xéo	-12.5658
▁nấy	-12.566
▁ngẩn	-12.566
▁hỉ	-12.566
▁hiếp	-12.5661
▁phồng	-12.5661
▁tạt	-12.5662
▁kiêu	-12.5662
▁ngóng	-12.5665
▁hờn	-12.5665
▁tuột	-12.5667
▁ciu	-12.5668
▁tríp	-12.5675
▁nêm	-12.5677
▁ố	-12.5677
▁tụng	-12.5677
õi	-12.5678
▁thiêng	-12.568
▁rình	-12.5705
▁vũng	-12.5715
▁khoanh	-12.5717
▁trin	-12.5727
▁cụt	-12.5746
▁xẻ	-12.5748
▁pét	-12.5773
om	-12.5783
▁nhộn	-12.5808
▁phoi	-12.5814
▁vạ	-12.5914
ợp	-12.5967
▁ú	-12.5975
▁phăn	-12.6008
▁dùm	-12.6009
éo	-12.6043
ăng	-12.6068
▁nang	-12.619
ơn	-12.62
ị	-12.6234
▁hán	-12.6403
ở	-12.6404
▁mị	-12.6409
▁ngơ	-12.6421
▁phồ	-12.6422
ượng	-12.6422
▁gượng	-12.6426
▁nương	-12.6426
▁rạng	-12.6426
▁chạc	-12.6426
▁thát	-12.6426
▁oăn	-12.6427
▁nghiền	-12.6427
▁hích	-12.6428
▁dải	-12.6428
▁lều	-12.6428
▁chần	-12.6429
▁trọt	-12.6431
▁sùng	-12.6432
▁quyên	-12.6436
▁lác	-12.6441
▁táng	-12.6441
▁cún	-12.6453
▁ổng	-12.6461
▁chói	-12.6503
▁tran	-12.6588
▁phia	-12.6606
▁bứ	-12.6621
▁cỗ	-12.6621
▁queo	-12.6634
▁giam	-12.6715
▁côm	-12.6805
▁cộ	-12.6962
▁thun	-12.6985
ào	-12.7031
ợt	-12.7083
é	-12.7128
▁tơi	-12.7232
▁gie	-12.7236
ức	-12.7249
▁rã	-12.7252
▁bở	-12.7253
ẫn	-12.7253
▁hứ	-12.7253
▁trờ	-12.7255
▁kị	-12.7258
▁nhuyễn	-12.7259
▁nhằn	-12.7259
▁nhoáng	-12.7259
▁suýt	-12.7259
▁dếch	-12.726
▁thóp	-12.726
▁quớt	-12.726
▁tróc	-12.726
▁ngợp	-12.726
▁rước	-12.726
▁gốt	-12.726
▁luộc	-12.726
▁nhăm	-12.726
▁nhạo	-12.726
▁đút	-12.7261
▁sác	-12.7261
▁chồn	-12.7262
▁sành	-12.7262
▁nhây	-12.7264
▁xỉu	-12.7264
▁dẫm	-12.7265
▁xàm	-12.7265
▁toát	-12.7267
▁loát	-12.7269
▁niền	-12.7276
▁cào	-12.7297
▁liêng	-12.7346
▁ria	-12.7346
ằn	-12.7415
ỉa	-12.7491
au	-12.7503
áy	-12.7524
▁sù	-12.7584
▁nhõ	-12.7591
▁vụn	-12.7593
▁ừm	-12.7603
▁dong	-12.7626
gục	-12.7695
▁toa	-12.7798
úp	-12.7843
ệp	-12.7977
ãi	-12.7981
ững	-12.8015
▁tum	-12.8096
ăn	-12.8147
ỗi	-12.8149
ĩ	-12.8162
ằng	-12.8163
ẩy	-12.8164
ậy	-12.8166
▁nhí	-12.8166
▁nhiễ	-12.8166
▁răn	-12.8168
▁bửu	-12.8168
▁gốm	-12.8168
▁rùa	-12.8168
▁rán	-12.8169
▁trầy	-12.8169
▁nẻo	-12.8169
▁dỡ	-12.8169
▁thám	-12.8169
▁đốp	-12.8169
▁quất	-12.8169
▁lượn	-12.8171
▁nhâm	-12.8171
▁buốt	-12.8172
▁chuồng	-12.8173
▁vòi	-12.8174
▁cội	-12.8176
▁lạp	-12.818
▁dịt	-12.8182
▁veo	-12.8192
▁rò	-12.8199
▁gặ	-12.8238
▁điếc	-12.8273
▁mêu	-12.8278
▁hú	-12.8329
ừng	-12.836
▁dua	-12.8487
▁ả	-12.8524
ày	-12.8543
▁hom	-12.8568
▁vụng	-12.8568
▁xệ	-12.86
ạc	-12.8679
ũng	-12.8758
ển	-12.8847
▁boa	-12.8909
háo	-12.8921
▁khốn	-12.895
▁ư	-12.9053
▁é	-12.9128
ỏ	-12.9154
▁lượ	-12.9159
ẽ	-12.9164
▁vù	-12.9165
▁giò	-12.9166
▁kề	-12.9168
▁thẳm	-12.9168
▁rốp	-12.9168
▁cừu	-12.9169
▁rạc	-12.9169
▁lẩu	-12.9169
▁phèo	-12.9169
▁lợm	-12.9169
▁đúp	-12.9169
▁dế	-12.9169
▁ngặt	-12.917
▁guộc	-12.917
▁quyện	-12.917
▁sỉ	-12.9171
▁hằn	-12.9171
▁hóng	-12.9171
▁hoán	-12.9172
▁ròng	-12.9173
▁bướng	-12.9174
▁trum	-12.9186
▁dem	-12.9203
▁phác	-12.9211
▁hòn	-12.9216
▁chảo	-12.9217
ệ	-12.9226
▁lộng	-12.9285
▁phế	-12.9292
▁tràng	-12.9315
ướt	-12.9383
▁rú	-12.9386
ùm	-12.9403
▁thồ	-12.941
▁cui	-12.9497
▁dậ	-12.9509
▁sắn	-12.9564
òng	-12.9564
▁nhún	-12.9567
ong	-12.9669
ện	-12.9707
ôm	-12.9735
▁nhú	-12.9746
ú	-12.9801
ôn	-12.9832
àng	-12.9879
èn	-12.9915
▁quệ	-12.9918
hậu	-12.9925
răm	-12.9928
▁sạ	-13.001
▁comi	-13.0125
ù	-13.0161
anh	-13.0169
ạnh	-13.0219
▁gion	-13.0221
ả	-13.0223
ạ	-13.0228
▁vò	-13.0268
ẩu	-13.0276
▁đệ	-13.0277
▁thự	-13.0279
▁rạn	-13.0279
▁maine	-13.028
▁păng	-13.028
▁sảo	-13.028
▁nực	-13.028
▁đậy	-13.028
▁gầm	-13.028
▁trác	-13.028
▁đéo	-13.028
▁lầy	-13.028
▁sưởi	-13.0281
▁nghiến	-13.0281
▁vút	-13.0282
▁dới	-13.0282
▁thừng	-13.0282
▁cằm	-13.0283
▁khập	-13.0283
▁hợt	-13.0283
▁lính	-13.0284
▁búa	-13.0285
▁héo	-13.0287
▁khanh	-13.0287
▁lụa	-13.0288
▁chôm	-13.029
▁lũng	-13.0293
▁giun	-13.0293
▁xiết	-13.0307
▁cúm	-13.0311
úc	-13.0312
àn	-13.032
▁gơn	-13.0321
▁pon	-13.0323
gù	-13.0382
▁chem	-13.0409
▁ngo	-13.0423
uân	-13.0491
▁bịu	-13.0573
ni	-13.0629
ậu	-13.0639
▁nhẹn	-13.0646
ei	-13.0727
ệch	-13.0838
ặng	-13.0962
ớp	-13.1051
ược	-13.1163
▁tạc	-13.1232
▁chồ	-13.1294
ưu	-13.1358
iây	-13.1365
ọa	-13.1373
ua	-13.1388
ười	-13.1462
ộ	-13.1496
ễ	-13.1515
▁lự	-13.1527
▁vú	-13.1529
▁bưởi	-13.1529
▁guých	-13.1529
▁nệm	-13.1529
▁khiễng	-13.1529
▁sục	-13.153
▁dẻ	-13.153
▁trĩ	-13.153
▁dăng	-13.153
▁xẹt	-13.153
▁cằn	-13.153
▁buồm	-13.153
▁ngạt	-13.1531
▁nhằng	-13.1531
▁nhối	-13.1531
▁năn	-13.1531
▁nhen	-13.1531
▁nghén	-13.1533
▁nhấp	-13.1533
▁mọt	-13.1533
▁míc	-13.1534
▁bục	-13.1534
▁sải	-13.1538
▁cọp	-13.1541
▁kèn	-13.1541
▁gem	-13.1543
ếch	-13.1543
▁guin	-13.1544
ống	-13.1553
▁tuồng	-13.1557
ui	-13.1566
▁poi	-13.1632
ố	-13.1677
ịt	-13.1686
▁phui	-13.1776
▁dề	-13.1779
▁phơn	-13.1826
▁lạng	-13.1837
▁nhó	-13.1857
ang	-13.1926
▁ngố	-13.205
▁ngọ	-13.2074
▁khiên	-13.2103
▁gui	-13.2112
ẵng	-13.2125
▁bui	-13.2146
ội	-13.2151
iơ	-13.2235
▁khê	-13.2318
ộc	-13.2374
ạn	-13.2374
▁nhấ	-13.2475
▁mó	-13.2608
ận	-13.263
▁sộ	-13.2653
▁bẹ	-13.2676
▁thố	-13.2695
tu	-13.2726
hăng	-13.2762
▁ré	-13.2768
ản	-13.2773
▁som	-13.2854
ổng	-13.2865
▁tuôn	-13.2914
ò	-13.2924
▁nom	-13.2932
▁dà	-13.2942
ữ	-13.2946
▁ngợ	-13.2951
▁đừ	-13.2953
▁nghé	-13.2955
▁dứ	-13.2957
▁hẫng	-13.2958
▁hẻm	-13.2958
▁xốp	-13.2958
▁gởi	-13.2958
▁xo	-13.2958
▁rịt	-13.2958
▁cuộ	-13.2958
▁đớp	-13.2959
▁găng	-13.2959
▁vầy	-13.2959
▁diễm	-13.2959
▁mọng	-13.2959
▁gỏi	-13.2959
▁díc	-13.296
▁sọc	-13.2961
▁nín	-13.2961
▁đấm	-13.2961
▁rân	-13.2962
▁ngóc	-13.2962
▁khét	-13.2963
▁duệ	-13.2965
▁tẻ	-13.2965
▁kẽm	-13.2966
▁nám	-13.2968
▁cạp	-13.2969
▁nép	-13.2971
▁giừn	-13.2974
▁chừn	-13.2975
▁hốc	-13.2977
▁hấu	-13.2978
▁bốp	-13.2987
▁khuê	-13.2995
▁thiếp	-13.3003
▁bùm	-13.3025
▁hổn	-13.3032
ợn	-13.3034
▁hã	-13.3067
ón	-13.3078
▁hớ	-13.3198
▁sá	-13.3236
▁càn	-13.3238
▁trỏ	-13.3278
ỉnh	-13.3372
▁dôi	-13.3377
▁thừ	-13.3402
rải	-13.3527
én	-13.3785
nô	-13.3803
ực	-13.382
▁bẵ	-13.3866
ti	-13.3878
▁tè	-13.3935
▁tấ	-13.394
▁hăn	-13.3952
ành	-13.4017
ủy	-13.4025
ếng	-13.4086
▁ngư	-13.4135
▁k	-13.4158
iừn	-13.4421
học	-13.4502
▁bâ	-13.4502
ia	-13.4535
eơ	-13.4538
▁giê	-13.4553
ìn	-13.4578
uơ	-13.4596
ư	-13.4601
▁xó	-13.4613
▁đớ	-13.4615
▁chư	-13.4619
▁dũ	-13.4622
ỹ	-13.4624
▁nghê	-13.4624
▁dé	-13.4624
▁khoắn	-13.4625
▁ngoãn	-13.4625
▁xoắn	-13.4625
▁gốp	-13.4625
▁phịt	-13.4625
▁phăm	-13.4625
▁rặn	-13.4625
▁xèo	-13.4626
▁hục	-13.4626
▁múc	-13.4626
▁chằng	-13.4626
▁nhòa	-13.4626
▁nư	-13.4626
▁vót	-13.4626
▁quắc	-13.4626
▁lổ	-13.4627
▁sượng	-13.4627
▁nguôi	-13.4627
▁vốt	-13.4627
▁guôn	-13.4627
▁nhót	-13.4628
▁téc	-13.4629
▁tưởi	-13.4632
▁vách	-13.4632
▁xói	-13.4634
▁hee	-13.4634
▁loãng	-13.4635
▁chóc	-13.4643
▁trôn	-13.4663
ươn	-13.4674
▁mánh	-13.4677
▁vênh	-13.4677
▁soai	-13.4677
▁num	-13.4682
▁thoi	-13.4689
▁xở	-13.4689
▁vien	-13.472
▁vồng	-13.4727
ướp	-13.4783
▁thò	-13.4799
▁un	-13.4806
▁gài	-13.4819
▁béc	-13.4874
▁sọ	-13.4876
ểu	-13.4899
▁rốn	-13.4925
ích	-13.5002
tan	-13.509
em	-13.5157
ta	-13.5193
áu	-13.5422
▁thiu	-13.5423
▁xan	-13.5427
▁rả	-13.5518
▁sôn	-13.5526
ạch	-13.5529
▁lôn	-13.5573
▁khắ	-13.5595
▁ní	-13.5609
▁giã	-13.5632
▁lù	-13.5644
ọi	-13.5802
▁goe	-13.601
▁hí	-13.6065
húng	-13.6092
to	-13.6092
ien	-13.6159
▁gí	-13.6162
▁rư	-13.6166
ùa	-13.6256
am	-13.629
eu	-13.6465
ều	-13.6492
▁tenni	-13.6495
ie	-13.6564
ủ	-13.6578
è	-13.6606
ắ	-13.6611
▁đò	-13.6615
ự	-13.6617
▁nắn	-13.6624
▁píc	-13.6625
▁bấc	-13.6625
▁ngùi	-13.6625
▁lươn	-13.6625
▁tuýt	-13.6625
▁nhè	-13.6625
▁níc	-13.6625
▁khương	-13.6625
▁póp	-13.6626
▁xẩm	-13.6626
▁phới	-13.6626
▁goét	-13.6627
▁tóe	-13.6627
▁thạnh	-13.6627
▁téch	-13.6627
▁lấm	-13.6627
▁chắp	-13.6628
▁nặn	-13.6628
▁viet	-13.6629
▁ẩu	-13.663
▁mụ	-13.6631
▁hỉnh	-13.6631
▁tẹt	-13.6633
▁toanh	-13.6636
▁nhoài	-13.6636
▁cuông	-13.6637
▁hấn	-13.664
▁suông	-13.6664
▁tụy	-13.6666
▁đốn	-13.6673
▁riêu	-13.6687
uyển	-13.6692
▁xìn	-13.6721
▁ene	-13.6738
▁đờm	-13.6745
▁gá	-13.6747
▁mìn	-13.678
▁ngà	-13.6782
▁nhẹt	-13.6825
▁lị	-13.6856
ừnii	-13.6869
ởi	-13.6943
▁xeo	-13.6964
▁deni	-13.6989
hững	-13.6992
oán	-13.7066
▁sưa	-13.7191
hạnh	-13.7233
íp	-13.7352
▁chẻ	-13.7387
ính	-13.7477
▁soa	-13.7581
oài	-13.7822
▁sà	-13.7932
▁hù	-13.7934
▁muỗ	-13.7943
ừni	-13.7944
gập	-13.8021
iii	-13.8027
inh	-13.8114
ớn	-13.8118
hùa	-13.8156
nai	-13.8268
ue	-13.8294
na	-13.8306
ặm	-13.8389
ồn	-13.8407
▁lie	-13.8448
▁lỏ	-13.8645
▁sí	-13.8749
▁bớ	-13.876
▁dầ	-13.8767
▁giôn	-13.8862
né	-13.8937
▁hó	-13.8971
iết	-13.9015
hực	-13.9015
úa	-13.9028
▁minin	-13.9107
▁lọn	-13.9115
▁trứ	-13.9121
ghề	-13.9124
▁nhò	-13.9124
▁diane	-13.9125
▁lớ	-13.9125
▁mướn	-13.9125
▁nghếch	-13.9125
▁nứa	-13.9125
▁venice	-13.9125
▁ngoạn	-13.9125
▁hợ	-13.9125
▁lảng	-13.9125
▁rịch	-13.9125
▁gươm	-13.9125
▁phèn	-13.9125
▁thẹn	-13.9125
▁sủi	-13.9125
▁rẩy	-13.9126
▁xắc	-13.9127
▁loáng	-13.9127
▁xới	-13.9127
▁tráo	-13.9127
▁hùn	-13.9128
▁sẩy	-13.9128
▁lứt	-13.9128
▁thán	-13.9128
▁vèo	-13.9128
▁ngạch	-13.9129
▁sẫm	-13.9129
ờừn	-13.9129
▁nhọt	-13.9131
▁liếng	-13.9131
ừii	-13.9131
hiễm	-13.9131
▁nhím	-13.9134
▁líc	-13.9134
▁moon	-13.9136
▁nẻ	-13.9137
aiei	-13.9139
▁roét	-13.9143
▁guất	-13.9144
▁roai	-13.9144
àu	-13.9147
▁gióp	-13.9151
ưỡi	-13.9152
▁độn	-13.9154
▁came	-13.9158
ờét	-13.9162
▁soon	-13.9169
▁tuốt	-13.9175
▁tuế	-13.919
▁nạc	-13.9193
▁tíc	-13.9249
▁gàn	-13.9275
▁boo	-13.933
▁chẹ	-13.9364
▁rei	-13.9374
▁lư	-13.9397
▁gôm	-13.9418
▁tản	-13.943
▁phau	-13.9452
▁trụi	-13.9489
▁hổi	-13.949
nát	-13.9492
õng	-13.951
▁soét	-13.957
▁soo	-13.962
▁đán	-13.9627
▁què	-13.9637
▁khố	-13.9683
▁sú	-13.9694
ưới	-13.9782
▁ghim	-13.9811
nen	-14.0119
rúc	-14.0179
uất	-14.0194
ốn	-14.0258
uộc	-14.0279
ổi	-14.0438
uốt	-14.0549
nó	-14.0647
▁gã	-14.0841
▁đú	-14.0845
▁đấ	-14.0905
méc	-14.0924
▁vẹ	-14.1042
ín	-14.1063
nơ	-14.1149
▁gue	-14.1182
▁hừn	-14.1201
▁sả	-14.1359
ủng	-14.1371
uei	-14.1401
ní	-14.1462
oei	-14.1547
ộng	-14.1693
iệm	-14.1697
rằn	-14.1761
ình	-14.1794
ờie	-14.1857
▁đản	-14.1865
mà	-14.1871
▁mố	-14.1885
ừne	-14.19
étờ	-14.1969
óng	-14.1977
▁buồ	-14.2144
ủi	-14.2184
ẻo	-14.2186
un	-14.222
ảm	-14.2253
ịch	-14.2268
iiii	-14.2324
éte	-14.2336
hít	-14.2385
ểm	-14.2409
iné	-14.2429
ã	-14.2439
ương	-14.244
▁thá	-14.244
ẹ	-14.2441
▁đạ	-14.2444
▁lợ	-14.2445
ờaờ	-14.2452
ý	-14.2453
▁ngoa	-14.2453
▁ứ	-14.2456
▁gạ	-14.2456
▁xoan	-14.2457
hẻ	-14.2458
▁vượn	-14.2458
▁góa	-14.2458
▁rẫy	-14.2458
▁sừnéiờa	-14.2458
▁vitamin	-14.2458
▁kate	-14.2458
▁kiềng	-14.2458
▁vienna	-14.2458
ớtii	-14.2458
▁ghẹ	-14.2458
▁geun	-14.2458
▁ngừ	-14.2458
▁boeing	-14.2458
ờenờ	-14.2458
▁ríc	-14.2458
▁guốtăm	-14.2459
▁lử	-14.2459
▁lõm	-14.2459
▁thãi	-14.2459
éừn	-14.2459
▁phạc	-14.2459
▁minoan	-14.2459
▁tẹo	-14.2459
ừní	-14.2459
▁trớn	-14.2459
▁thoen	-14.246
▁rộp	-14.246
▁denni	-14.246
▁nghênh	-14.246
▁mịch	-14.246
▁kềnh	-14.2461
▁phạch	-14.2463
ùy	-14.2466
▁mợt	-14.2467
▁khơ	-14.2468
▁phóp	-14.2469
iinai	-14.2469
tup	-14.247
▁diễ	-14.2471
▁ruốc	-14.2472
▁giăng	-14.2473
▁roát	-14.2474
▁coát	-14.2478
uít	-14.2483
▁uây	-14.2489
útờ	-14.249
▁phóc	-14.2493
aoui	-14.2494
▁chiêng	-14.25
▁rêu	-14.2501
ioii	-14.2504
▁tennn	-14.2504
▁diêu	-14.2512
▁hén	-14.252
▁rơm	-14.2526
▁giụ	-14.2533
no	-14.2546
▁toe	-14.2548
▁duôi	-14.2559
▁hì	-14.2559
▁suây	-14.2584
ãng	-14.2701
ờé	-14.2709
enin	-14.2728
▁dọ	-14.273
▁vén	-14.277
▁chên	-14.2832
▁giàn	-14.2851
▁lán	-14.2931
ẹo	-14.2961
ỗng	-14.2975
iei	-14.3017
▁hòi	-14.3025
ghệ	-14.3142
▁diệ	-14.3194
▁vữ	-14.3239
nói	-14.3256
rượt	-14.3324
ung	-14.334
étơ	-14.3342
ánh	-14.3355
me	-14.3714
aờô	-14.3883
▁cuồn	-14.3901
ơm	-14.3936
uát	-14.4042
hôm	-14.4064
▁hoạ	-14.4076
ườn	-14.4077
ừna	-14.4085
họ	-14.4094
ạm	-14.4186
uôn	-14.427
▁soni	-14.4283
ém	-14.4394
iiui	-14.4429
oa	-14.446
iai	-14.4529
huyên	-14.4546
ía	-14.4632
hẹt	-14.47
hắc	-14.48
▁lừ	-14.4966
ươm	-14.5198
▁rí	-14.5227
toi	-14.5316
pa	-14.5403
ắng	-14.5517
▁reu	-14.5543
▁nú	-14.5681
hử	-14.5688
▁bet	-14.5735
uyến	-14.5885
▁mùn	-14.5959
een	-14.6092
ờei	-14.6096
ám	-14.6123
ữa	-14.6298
ượt	-14.6309
▁nấ	-14.6398
ộm	-14.6398
mố	-14.6413
▁trạc	-14.6449
ụp	-14.6478
▁trá	-14.6486
ờen	-14.6502
iuờ	-14.6551
ớm	-14.6563
oai	-14.6593
tom	-14.6696
ịnh	-14.676
▁bọ	-14.6761
étừn	-14.6771
òi	-14.6775
ịa	-14.6837
ờót	-14.6924
tờ	-14.6975
âyin	-14.7025
tét	-14.7046
ụt	-14.7072
goan	-14.7075
oừ	-14.7094
éinin	-14.7099
▁gợ	-14.7139
pi	-14.7139
▁đọ	-14.7189
ảnh	-14.7207
▁lón	-14.7209
▁sắ	-14.7225
inờ	-14.7293
aien	-14.7307
▁séừn	-14.7314
ĩa	-14.7315
éin	-14.7333
tai	-14.7357
ầ	-14.7376
ờéi	-14.7418
inờa	-14.742
ợ	-14.7438
▁mọ	-14.7445
ứ	-14.7446
▁xư	-14.7447
▁lườ	-14.7448
ờiui	-14.7448
ốp	-14.7449
ờít	-14.7449
▁bướ	-14.7451
ượ	-14.7451
òn	-14.7452
▁dả	-14.7453
hẹn	-14.7453
▁dớ	-14.7453
▁dừ	-14.7454
iiia	-14.7455
▁vẫ	-14.7455
▁xị	-14.7456
▁kẹ	-14.7456
ẵn	-14.7457
▁nghè	-14.7457
ainin	-14.7458
uýt	-14.7458
▁vắn	-14.7458
▁hỏn	-14.7458
ỵ	-14.7458
▁boein	-14.7458
oóí	-14.7458
ainia	-14.7458
iaooii	-14.7458
oờui	-14.7458
uéu	-14.7458
íiá	-14.7458
ờinii	-14.7458
ờuaii	-14.7458
ờờiờ	-14.7458
▁tenâuin	-14.7458
▁titờt	-14.7458
▁setti	-14.7458
aiừô	-14.7458
ừnini	-14.7458
ơinu	-14.7458
tiôờ	-14.7458
eiiâu	-14.7458
mami	-14.7458
từnuii	-14.7458
ịtiio	-14.7458
ờten	-14.7458
iôen	-14.7458
▁pốp	-14.7458
nơơ	-14.7458
oâui	-14.7458
ơuờ	-14.7459
omơi	-14.7459
iinờ	-14.7459
éui	-14.7459
▁thỉu	-14.7459
tờí	-14.7459
▁xú	-14.7459
▁thằn	-14.7459
▁sétầno	-14.7459
▁chử	-14.7459
ầnui	-14.7459
▁nhụt	-14.7459
étờéi	-14.746
étéờ	-14.746
ơoóu	-14.746
▁dăn	-14.746
▁khè	-14.746
uĩà	-14.746
uiai	-14.746
ópời	-14.746
ponai	-14.746
étui	-14.746
▁boot	-14.7461
átừn	-14.7461
▁thuộm	-14.7461
ừnoi	-14.7461
iéii	-14.7461
▁venei	-14.7461
▁mừ	-14.7462
uíta	-14.7462
onâyi	-14.7462
▁lĩ	-14.7462
âyinôn	-14.7462
ĩnh	-14.7463
ừnáp	-14.7463
óờó	-14.7463
▁canaa	-14.7464
átéch	-14.7464
▁bợt	-14.7464
tiinời	-14.7465
aiien	-14.7465
eờti	-14.7465
ờờiu	-14.7466
âyen	-14.7466
▁phone	-14.7466
▁sépờ	-14.7466
▁cừ	-14.7466
▁sume	-14.7466
▁mề	-14.7467
▁dậu	-14.7468
ờaiờ	-14.7468
▁lanhờ	-14.7468
▁sétìn	-14.7468
âuờa	-14.7468
iéờ	-14.7468
▁luồn	-14.7469
▁phếche	-14.7469
▁tờna	-14.747
iểm	-14.747
épờ	-14.7471
▁rế	-14.7471
ieờ	-14.7473
tiion	-14.7473
▁photo	-14.7474
ieây	-14.7474
▁phenoi	-14.7474
▁sâyần	-14.7474
▁ngoai	-14.7475
teiiin	-14.7476
▁nhíp	-14.7477
iaừnờ	-14.7478
éoa	-14.7479
eii	-14.7479
eiii	-14.7481
omờa	-14.7482
▁mớté	-14.7484
noi	-14.7484
eiít	-14.7487
ioin	-14.7487
năn	-14.7488
▁mếchừn	-14.749
▁sớtô	-14.749
▁sán	-14.749
ờané	-14.7497
▁tinae	-14.7499
átaiii	-14.7501
▁thenuô	-14.7503
▁miện	-14.7505
▁trê	-14.7507
▁bee	-14.7507
oeuii	-14.7508
ờờờ	-14.751
▁cùn	-14.7512
▁lòa	-14.7513
iôiờ	-14.7515
▁toẹt	-14.7519
▁senời	-14.7522
ốtaời	-14.7524
▁síte	-14.7526
oaii	-14.753
iiơu	-14.7533
nơi	-14.7533
ópiui	-14.7535
eéi	-14.7537
▁sétin	-14.7551
▁nân	-14.7554
iiiu	-14.7554
▁thuồng	-14.7562
▁lòn	-14.7568
íấtơ	-14.7575
▁mone	-14.7577
eờao	-14.758
▁miến	-14.7584
▁toiờ	-14.7595
▁gàu	-14.7621
▁từnừn	-14.7623
▁nhéo	-14.7626
ũi	-14.7629
uen	-14.765
iiié	-14.7668
aiừi	-14.7674
iée	-14.7683
eờ	-14.7689
ụn	-14.769
▁loe	-14.7701
mờờ	-14.7702
ừninoi	-14.7709
iố	-14.7715
mó	-14.7722
ờiiiii	-14.7722
▁traini	-14.7745
▁set	-14.78
▁diêm	-14.7815
éinini	-14.783
aơờ	-14.7843
ôiiio	-14.7869
▁tennia	-14.7875
ítờtn	-14.7884
tóí	-14.7915
ioiii	-14.7934
▁bơo	-14.7981
▁nomét	-14.8002
ộp	-14.8013
chi	-14.8053
▁phíc	-14.8085
aniuii	-14.8144
▁get	-14.8183
iine	-14.8198
▁xôn	-14.8202
iiiai	-14.8256
▁xộ	-14.8257
étinét	-14.8268
ninờ	-14.8292
ieờiu	-14.8301
▁phầ	-14.8314
ôein	-14.8399
uần	-14.8443
chờát	-14.8511
oang	-14.8573
▁gio	-14.8623
nờen	-14.8625
étét	-14.8626
iiừn	-14.8694
ìa	-14.8787
▁rátừn	-14.8809
▁trừn	-14.8833
néie	-14.8837
▁gỏ	-14.8843
enờờ	-14.8869
▁veni	-14.8934
eiút	-14.8978
▁traiờ	-14.8988
iờị	-14.9013
ầnen	-14.9054
hoạt	-14.9321
ụi	-14.9337
ừnen	-14.9359
iiai	-14.945
ừnâui	-14.954
rườ	-14.9591
nờ	-14.9592
eờu	-14.9594
▁thó	-14.964
aoừnin	-14.9658
▁chạ	-14.9742
ieói	-14.9764
iếng	-14.9847
ieít	-14.9897
▁gọ	-14.9915
ừnaii	-14.997
ừniin	-15.0217
gọt	-15.0269
étờờ	-15.0369
ma	-15.0403
iờinờ	-15.0571
ơeni	-15.0729
étei	-15.0835
átơ	-15.0965
oé	-15.112
étôô	-15.1169
▁dõ	-15.1521
▁détô	-15.1547
enờ	-15.1732
hường	-15.1895
ục	-15.1967
ỏng	-15.2238
oát	-15.2302
ịtéti	-15.2369
tờờ	-15.2411
ọ	-15.2445
men	-15.2493
hớp	-15.251
ừniờ	-15.2576
iền	-15.2725
ôaờ	-15.2985
mai	-15.2988
im	-15.3382
hiên	-15.346
▁sế	-15.3479
nế	-15.3651
ếche	-15.3696
nin	-15.3717
oừni	-15.381
eniiờ	-15.3856
oiuờ	-15.3982
inờát	-15.4045
aoii	-15.4105
oan	-15.4188
oii	-15.4356
▁lãn	-15.4387
▁lủn	-15.4473
▁đùn	-15.4507
iâyi	-15.4522
ioi	-15.4668
hệ	-15.4718
ọng	-15.4719
▁doa	-15.476
tiiui	-15.4808
▁tộ	-15.4837
ạng	-15.4864
ơenii	-15.4888
▁bờie	-15.4952
ờáti	-15.4953
úi	-15.4977
▁nhầ	-15.502
aiờu	-15.5035
▁vừ	-15.5042
▁gụ	-15.5138
pop	-15.5212
tiâui	-15.5365
inaen	-15.5405
éie	-15.5478
iê	-15.5582
eờiu	-15.5589
tin	-15.5601
áng	-15.5632
eui	-15.5643
ún	-15.5717
tịt	-15.5723
niiii	-15.5742
ine	-15.5751
miuá	-15.5889
▁rạ	-15.5892
nít	-15.5994
iệ	-15.6065
âuei	-15.6076
▁hãn	-15.6208
tópủa	-15.6214
ườ	-15.6342
uôi	-15.6364
nenờ	-15.6365
iếc	-15.6394
▁hétát	-15.6419
▁mư	-15.6451
iiiou	-15.6487
ten	-15.6532
hăm	-15.6645
einờ	-15.6698
▁xiế	-15.6739
iniii	-15.6751
õm	-15.6786
▁trainin	-15.6801
ờiiii	-15.6816
hung	-15.6861
ípới	-15.6861
tôi	-15.6869
▁mầ	-15.6926
títii	-15.6981
eniu	-15.7012
ảo	-15.7082
étót	-15.7088
èm	-15.7107
ạy	-15.7124
hừneo	-15.7155
taoói	-15.7162
nonii	-15.7173
iế	-15.7175
hời	-15.7196
▁thỉ	-15.7211
tần	-15.7235
che	-15.7247
▁đư	-15.7248
tờai	-15.7248
ờeừ	-15.7249
▁xuồn	-15.7253
ựa	-15.726
éii	-15.7262
étần	-15.7265
inừné	-15.728
niu	-15.7287
ờịt	-15.7292
niít	-15.7302
ieio	-15.7302
oá	-15.7321
eiia	-15.7322
ếchii	-15.733
òa	-15.7331
te	-15.7332
oeui	-15.7333
uiia	-15.7334
ítờt	-15.7336
ờớt	-15.7336
iuét	-15.7344
▁minét	-15.7346
nay	-15.7349
ừné	-15.7357
▁ướ	-15.7358
tóti	-15.7368
tô	-15.737
▁sầnao	-15.7371
▁đí	-15.7376
eié	-15.7389
eií	-15.7391
chờ	-15.7391
té	-15.7398
ấ	-15.7401
eờa	-15.7407
iâyờ	-15.7414
tơả	-15.7414
ỉu	-15.7417
oáng	-15.742
nâyii	-15.7421
ảng	-15.7422
ôei	-15.7426
ừnờii	-15.7427
nờe	-15.7427
ờôe	-15.7432
aiờô	-15.7434
ờtii	-15.744
ươ	-15.744
▁phạ	-15.7441
oie	-15.7442
cặ	-15.7446
nâyi	-15.7446
ặ	-15.7447
ậ	-15.7447
ípô	-15.7448
átiii	-15.7449
▁đặ	-15.7451
▁lầ	-15.7451
▁thấ	-15.7451
▁đợ	-15.7453
éờo	-15.7454
▁mắ	-15.7454
▁thuyề	-15.7455
iítừ	-15.7455
▁xươ	-15.7456
uiin	-15.7456
▁quã	-15.7457
ặp	-15.7457
anaa	-15.7457
iễm	-15.7457
▁ngùn	-15.7458
ỳ	-15.7458
mié	-15.7458
uiờu	-15.7458
uomi	-15.7458
▁phò	-15.7458
uuu	-15.7458
íii	-15.7458
▁vọn	-15.7458
ômam	-15.7458
ịté	-15.7459
tiế	-15.746
▁đượ	-15.746
▁xè	-15.746
toá	-15.746
toan	-15.7461
▁trớ	-15.7461
ừniây	-15.7462
ọn	-15.7462
uờin	-15.7462
aoiu	-15.7462
▁síc	-15.7463
▁nã	-15.7463
ịp	-15.7464
▁phé	-15.7464
omét	-15.7464
▁xăn	-15.7464
▁gú	-15.7465
▁tuaé	-15.7466
cắ	-15.7467
▁quăn	-15.7467
▁khỏ	-15.7467
▁nghiệ	-15.7467
▁sòn	-15.7468
aiút	-15.7469
▁tré	-15.7469
uẹ	-15.7469
▁lỏn	-15.7469
▁xưn	-15.7473
▁hẹ	-15.7473
▁gạc	-15.7473
núi	-15.7475
oạ	-15.7477
tìn	-15.7477
▁sỏ	-15.7477
▁tuầ	-15.7478
uyễn	-15.7479
iéin	-15.7491
▁vạc	-15.7495
ửa	-15.7497
▁lõ	-15.7505
mò	-15.7507
ịu	-15.7511
tắp	-15.7515
▁mế	-15.7516
iều	-15.7525
▁sớ	-15.753
▁same	-15.7535
chen	-15.7539
▁siờờ	-15.7541
▁xíc	-15.756
▁sétừ	-15.7562
unoni	-15.757
▁đụ	-15.7584
ổn	-15.7594
▁tiế	-15.7619
ớtaờ	-15.7652
mút	-15.7669
inaiii	-15.7686
▁chuô	-15.7705
nao	-15.7708
mấy	-15.7712
▁thỉn	-15.7719
gon	-15.7748
mon	-15.7778
▁sé	-15.7787
étờt	-15.7858
mét	-15.7879
ờéio	-15.79
▁boe	-15.7922
mé	-15.7951
▁quỳn	-15.7953
▁bíc	-15.8019
eneờ	-15.8094
iới	-15.8134
▁doan	-15.8144
tiu	-15.8168
iáo	-15.8191
ueơ	-15.8312
mớt	-15.8427
enoi	-15.8493
▁thàn	-15.8502
ian	-15.8612
ca	-15.873
mê	-15.9205
iiiii	-15.9272
pin	-15.9496
uộm	-15.971
naiii	-16.0002
ỏi	-16.0176
ty	-16.0314
▁đìn	-16.0333
▁khuy	-16.0693
àm	-16.0722
▁chuy	-16.0895
um	-16.1122
ghiền	-16.1648
hừnơ	-16.1819
▁huyn	-16.1887
ga	-16.2877
ờoe	-16.3013
iuời	-16.3993
mu	-16.4917
nhau	-16.5704
tim	-16.58
iện	-16.62
từn	-16.6321
tịtéti	-16.6977
uầy	-16.7124
hầy	-16.9296
ẵ	-16.9298
ẳ	-16.9299
ẩ	-16.93
ẫ	-16.9301
ằ	-16.9302
ă	-16.9303
x	-16.9304
q	-16.9305
d	-16.9306
â	-16.9307
k	-16.9308
s	-16.9309
b	-16.931
r	-16.9311
v	-16.9312
l	-16.9313
nam	-16.9314
đ	-16.9314
