<unk>	0
▁là	-3.20595
▁cái	-3.60652
▁mình	-3.86598
▁có	-3.97901
▁thì	-4.10149
▁mà	-4.13814
▁một	-4.23737
▁không	-4.31142
▁bạn	-4.38868
▁và	-4.46485
▁những	-4.47877
▁nó	-4.48474
▁của	-4.65215
▁người	-4.68884
▁ta	-4.80246
▁các	-4.81726
▁sẽ	-4.85438
▁đó	-4.85478
▁đi	-4.91286
▁được	-4.91812
▁cho	-4.9406
▁như	-4.94134
▁rất	-4.94259
▁cũng	-5.01428
▁này	-5.02716
▁để	-5.04305
▁chúng	-5.05086
▁với	-5.09825
▁em	-5.10898
▁thể	-5.18654
▁phải	-5.20158
▁trong	-5.2028
▁làm	-5.21501
▁nhiều	-5.28227
▁ra	-5.32686
▁khi	-5.33411
▁rồi	-5.37781
▁ở	-5.46793
▁anh	-5.47595
▁về	-5.49607
▁nhưng	-5.52674
▁vì	-5.60793
▁học	-5.60922
▁gì	-5.62248
▁thấy	-5.62634
▁hai	-5.63852
▁nói	-5.64177
▁lại	-5.6422
▁đấy	-5.64262
▁hơn	-5.64591
▁đã	-5.64997
▁nào	-5.66586
▁họ	-5.66916
▁sự	-5.67856
▁việc	-5.68204
▁hay	-5.71506
▁đến	-5.76745
▁thế	-5.77484
▁nên	-5.78724
▁đầu	-5.85253
▁cảm	-5.86415
▁đây	-5.87106
▁từ	-5.91021
▁giờ	-5.92241
▁vậy	-5.92617
▁biết	-5.93738
▁nghĩ	-5.94763
▁năm	-5.9477
▁con	-5.95412
▁công	-5.97797
▁điều	-6.01102
▁chỉ	-6.03536
▁nếu	-6.03751
▁thôi	-6.04927
▁tại	-6.07243
▁vào	-6.07829
▁đúng	-6.07873
▁ba	-6.0813
▁luôn	-6.08688
▁cả	-6.0877
▁chính	-6.09341
▁thời	-6.09488
▁quan	-6.10974
▁khác	-6.11188
▁muốn	-6.11222
▁còn	-6.13321
▁đang	-6.14167
▁ngày	-6.16578
▁thứ	-6.16926
▁mọi	-6.17356
▁mới	-6.18003
▁quá	-6.21213
▁vi	-6.21978
▁bản	-6.23214
▁tôi	-6.244
▁sao	-6.24718
▁nhất	-6.25089
▁chị	-6.25398
▁nữa	-6.27423
▁cách	-6.27857
▁ti	-6.28073
▁cần	-6.29095
▁thân	-6.29458
▁tin	-6.30742
▁câu	-6.31509
▁á	-6.31799
▁sau	-6.33707
▁ai	-6.35546
▁ô	-6.37443
▁lúc	-6.38246
▁bị	-6.3935
▁rằng	-6.39973
▁sống	-6.40284
▁theo	-6.403
▁thành	-6.40911
▁bây	-6.43358
▁thích	-6.43971
▁cô	-6.47309
▁thực	-6.48
▁phần	-6.48253
▁tự	-6.50824
▁chuyện	-6.50872
▁hỏi	-6.51655
▁nhau	-6.52398
▁nhận	-6.53063
▁ý	-6.53383
▁cuộc	-6.53971
▁lên	-6.54019
▁điểm	-6.55722
▁đâu	-6.55722
▁tốt	-6.55816
▁gian	-6.58893
▁trước	-6.60398
▁trên	-6.60704
▁trường	-6.61011
▁số	-6.61167
▁vẫn	-6.61646
▁thật	-6.64526
▁bi	-6.64613
▁sờ	-6.65888
▁chưa	-6.67554
▁qua	-6.67876
▁bởi	-6.68026
▁yêu	-6.69666
▁hiểu	-6.70274
▁tiếp	-6.70739
▁ri	-6.70828
▁hết	-6.70887
▁mươi	-6.71014
▁cùng	-6.71205
▁nhìn	-6.71781
▁năng	-6.72661
▁tới	-6.73115
▁hiện	-6.73614
▁trình	-6.74468
▁thường	-6.74951
▁ấy	-6.75682
▁tập	-6.76083
▁động	-6.76594
▁trọng	-6.76732
▁đề	-6.77345
▁phát	-6.77773
▁lý	-6.78613
▁nhà	-6.7903
▁hoặc	-6.79302
▁si	-6.79435
▁kiểu	-6.80555
▁xem	-6.80564
▁định	-6.80999
▁việt	-6.81539
▁tư	-6.82129
▁sản	-6.82463
▁hàng	-6.8439
▁sinh	-6.84905
▁tâm	-6.85163
▁hợp	-6.85212
▁tiền	-6.85212
▁chia	-6.8549
▁bắt	-6.85726
▁giá	-6.85907
▁gia	-6.86447
▁nay	-6.87088
▁tất	-6.88492
▁dụng	-6.89567
▁bên	-6.90259
▁ăn	-6.90999
▁bao	-6.91373
▁hãy	-6.9157
▁trăm	-6.91779
▁tiên	-6.91834
▁đối	-6.92015
▁mười	-6.92171
▁nam	-6.92444
▁nhiên	-6.92776
▁à	-6.94275
▁sừn	-6.94778
▁tìm	-6.95583
▁hôm	-6.97308
▁a	-6.98027
▁nghe	-6.98054
▁tiếng	-6.98167
▁gọi	-6.98361
▁khó	-6.98418
▁dụ	-6.98453
▁nghiệp	-6.98836
▁cứ	-6.99375
▁vấn	-7.00645
▁cơ	-7.01457
▁sẻ	-7.01822
▁nghĩa	-7.01958
▁in	-7.02229
▁ví	-7.02276
▁vừa	-7.02458
▁mẹ	-7.02488
▁thông	-7.02808
▁lai	-7.02969
▁phẩm	-7.02983
▁lời	-7.03162
▁chắc	-7.04158
▁ờ	-7.04366
▁lần	-7.04929
▁bài	-7.05092
▁dùng	-7.05336
▁thay	-7.05886
▁li	-7.05907
▁hình	-7.06248
▁đổi	-7.06495
▁thức	-7.06573
▁ngoài	-7.07187
▁nước	-7.07645
▁lớn	-7.08167
▁tình	-7.08197
▁xong	-7.10029
▁nhân	-7.10312
▁mua	-7.11546
▁mỗi	-7.11895
▁chứ	-7.1215
▁đồng	-7.12689
▁chọn	-7.12825
▁sách	-7.13537
▁hội	-7.14033
▁kết	-7.1426
▁mặt	-7.14613
▁ni	-7.15002
▁tính	-7.15307
▁hệ	-7.15602
▁gặp	-7.15967
▁tạo	-7.16568
▁trở	-7.18561
▁dạ	-7.19365
▁lực	-7.19901
▁dễ	-7.19935
▁bằng	-7.20595
▁hành	-7.21016
▁trung	-7.2133
▁kinh	-7.21862
▁do	-7.22473
▁giúp	-7.23277
▁thêm	-7.236
▁tức	-7.24537
▁toàn	-7.25155
▁tiêu	-7.26629
▁đọc	-7.2692
▁đờ	-7.27616
▁triển	-7.27665
▁nha	-7.27988
▁xin	-7.28413
▁khoảng	-7.29743
▁sử	-7.29916
▁cao	-7.30907
▁bình	-7.31203
▁chút	-7.31403
▁ông	-7.31727
▁vô	-7.31863
▁mi	-7.3273
▁đều	-7.34094
▁hoàn	-7.34102
▁hạn	-7.34666
▁lắm	-7.35031
▁doanh	-7.35192
▁giống	-7.35474
▁thương	-7.35596
▁hơi	-7.37105
▁biệt	-7.37474
▁trả	-7.37797
▁kê	-7.38071
▁càng	-7.38268
▁trị	-7.38386
▁sai	-7.39207
▁en	-7.39368
▁nghiệm	-7.39979
▁bốn	-7.40722
▁vị	-7.41196
▁cố	-7.41267
▁bờ	-7.41387
▁khá	-7.41396
▁i	-7.42673
▁sáng	-7.43158
▁độ	-7.43438
▁sang	-7.43534
▁bộ	-7.43558
▁giải	-7.43715
▁lượng	-7.43902
▁nhớ	-7.44875
▁ca	-7.44942
▁từng	-7.44962
▁lâu	-7.45453
▁chủ	-7.45632
▁giới	-7.45722
▁sâu	-7.47346
▁nhỏ	-7.47711
▁tích	-7.47712
▁đủ	-7.4794
▁gần	-7.47985
▁quả	-7.48174
▁dành	-7.48675
▁viên	-7.49282
▁quay	-7.49891
▁vui	-7.49929
▁da	-7.50276
▁ngay	-7.50396
▁đẹp	-7.50678
▁quyết	-7.51103
▁chi	-7.51122
▁di	-7.51345
▁ít	-7.51434
▁suy	-7.51768
▁kỳ	-7.51813
▁quen	-7.52293
▁đưa	-7.52434
▁đặc	-7.52577
▁chất	-7.52625
▁màu	-7.52833
▁đừng	-7.53155
▁ty	-7.53396
▁đôi	-7.53757
▁đại	-7.53881
▁đồ	-7.54281
▁liên	-7.54859
▁đơn	-7.54914
▁bảo	-7.55054
▁tế	-7.55083
▁xi	-7.55789
▁xúc	-7.55793
▁rõ	-7.56439
▁tháng	-7.56739
▁thi	-7.5679
▁cuối	-7.56839
▁tài	-7.5714
▁kiến	-7.58402
▁tu	-7.58648
▁chung	-7.58868
▁hướng	-7.58963
n	-7.59302
▁áp	-7.59306
▁hiệu	-7.60249
i	-7.60802
▁đời	-7.60836
▁thử	-7.60976
▁đa	-7.61574
▁cực	-7.61709
▁kỹ	-7.61761
▁trẻ	-7.61919
▁xuất	-7.62078
▁bất	-7.62447
▁chơi	-7.62767
▁tinh	-7.63077
▁kia	-7.63311
▁cuốn	-7.63404
▁ơn	-7.63628
▁mối	-7.64263
▁hồi	-7.64552
▁bé	-7.64663
▁ảnh	-7.64749
▁tuổi	-7.65401
▁mất	-7.66332
▁tác	-7.66716
▁cờ	-7.6672
▁phương	-7.66773
▁đường	-7.66773
▁đặt	-7.66939
▁sáu	-7.67606
▁mang	-7.6764
▁bước	-7.67717
▁trải	-7.68007
▁du	-7.68296
▁môn	-7.68485
▁khách	-7.68628
▁tám	-7.69179
▁gắng	-7.69236
▁mong	-7.69416
▁hóa	-7.69746
▁thị	-7.69834
▁bỏ	-7.69917
▁chí	-7.70228
▁chẳng	-7.70661
▁mai	-7.71101
▁so	-7.71565
▁duy	-7.72578
▁mấy	-7.72634
▁ngồi	-7.72986
▁san	-7.73607
▁mục	-7.74467
▁an	-7.74691
▁dù	-7.75028
▁uống	-7.75246
▁chương	-7.75487
▁mô	-7.75532
▁chuẩn	-7.75668
▁nè	-7.75789
▁nhá	-7.76374
▁mạnh	-7.76639
▁ngành	-7.77252
▁phụ	-7.77549
▁nghệ	-7.78052
▁coi	-7.79063
▁ạ	-7.79549
▁kể	-7.79736
▁ma	-7.80093
▁đánh	-7.80244
▁trang	-7.80252
▁sức	-7.80305
▁tay	-7.80328
▁dài	-7.80558
▁bảy	-7.81194
▁tương	-7.81834
▁tơ	-7.82172
▁nội	-7.82803
▁hát	-7.82868
▁cầu	-7.83323
▁loại	-7.83584
▁phù	-7.8365
▁xe	-7.8377
▁riêng	-7.83781
▁tục	-7.83781
▁giác	-7.83937
▁viết	-7.83989
▁lấy	-7.84109
▁thu	-7.84217
▁linh	-7.84262
▁thầy	-7.84372
ng	-7.84875
▁lớp	-7.84967
▁minh	-7.85449
▁giả	-7.85469
▁phân	-7.85765
▁đình	-7.85767
▁chín	-7.86022
▁trời	-7.86436
▁pháp	-7.86507
▁tham	-7.87113
▁yếu	-7.8779
▁sợ	-7.87861
▁thiết	-7.88478
▁khiến	-7.88819
▁quốc	-7.89233
▁khả	-7.89286
▁trí	-7.90396
▁pho	-7.90586
▁ki	-7.9065
▁mặc	-7.90766
▁chắn	-7.91613
▁ơi	-7.91839
▁xã	-7.92538
▁liệu	-7.92825
▁tờ	-7.93046
▁bán	-7.93089
▁ừ	-7.93135
▁cấp	-7.934
▁chờ	-7.93401
▁lo	-7.93448
▁na	-7.93628
▁ha	-7.93711
▁tên	-7.94031
▁mở	-7.94488
▁mức	-7.94707
▁ngủ	-7.94853
▁lòng	-7.94854
▁vài	-7.95269
▁buổi	-7.96031
▁sa	-7.9642
▁hạnh	-7.96556
▁nhanh	-7.96868
▁kiếm	-7.97298
▁ét	-7.97299
▁cá	-7.97787
▁văn	-7.97824
▁lập	-7.98126
▁sân	-7.98353
▁tưởng	-7.98353
▁giản	-7.98707
▁trò	-7.99067
▁mày	-7.99471
▁môi	-7.99558
▁diu	-7.99595
▁ây	-8.0019
▁đoạn	-8.01431
▁máy	-8.01511
▁lựa	-8.01744
▁đứa	-8.01744
▁diễn	-8.02611
▁kế	-8.02752
▁đạt	-8.02848
▁vọng	-8.04044
▁tăng	-8.04205
▁phi	-8.04277
▁hoạt	-8.04769
▁sĩ	-8.05174
▁quanh	-8.06699
▁khăn	-8.0681
▁hưởng	-8.07223
▁món	-8.07632
▁giỏi	-8.07639
▁tóc	-8.07971
▁cạnh	-8.08557
▁dung	-8.09203
▁tuy	-8.09318
▁xung	-8.09758
▁tiết	-8.10008
▁chào	-8.10678
▁phúc	-8.10937
▁điện	-8.11193
▁chuyên	-8.11452
▁mắt	-8.11452
▁dạy	-8.11463
▁phòng	-8.11798
▁tối	-8.1219
▁nhiêu	-8.13724
▁giáo	-8.14491
▁đương	-8.1479
▁tượng	-8.14969
▁mạng	-8.15508
▁xác	-8.15686
▁nguyên	-8.15688
▁báo	-8.16141
▁phút	-8.16142
▁giao	-8.16289
▁ràng	-8.16321
▁lăm	-8.16502
▁dịch	-8.16502
▁chứng	-8.16518
▁nô	-8.16846
▁dần	-8.16866
▁xuống	-8.16957
▁gái	-8.16957
▁cụ	-8.1747
▁la	-8.17854
▁thói	-8.17874
m	-8.17926
▁lợi	-8.18243
▁cây	-8.18244
▁rô	-8.18288
▁lô	-8.18398
▁men	-8.1864
▁tim	-8.18892
▁ứng	-8.19734
▁thậm	-8.19922
▁khoa	-8.19926
▁cứu	-8.20061
▁đất	-8.20299
▁tao	-8.20776
▁to	-8.20991
▁bố	-8.21124
▁sô	-8.219
▁tuần	-8.21919
▁chuyển	-8.22204
▁buồn	-8.22301
▁nhạc	-8.22493
▁tố	-8.22498
▁nơi	-8.22791
▁phim	-8.23204
▁đáng	-8.23284
▁vụ	-8.23366
▁nguồn	-8.23853
▁xây	-8.23951
▁sắp	-8.24049
▁chỗ	-8.24245
▁xa	-8.24516
▁lắng	-8.2454
▁sư	-8.25021
▁quản	-8.25035
▁com	-8.25346
▁hả	-8.25465
▁dự	-8.25475
▁truyền	-8.25629
▁dẫn	-8.25729
▁toán	-8.25729
▁xưa	-8.25729
▁mỹ	-8.25829
▁giữ	-8.26111
▁phí	-8.26264
▁lịch	-8.2673
▁e	-8.26742
▁triệu	-8.26932
▁biến	-8.27128
▁cha	-8.27203
▁chú	-8.27763
▁quên	-8.27856
▁giữa	-8.28065
▁cộng	-8.28253
▁nền	-8.28768
▁chịu	-8.29176
▁su	-8.2989
▁thần	-8.29901
▁khỏe	-8.30526
▁bà	-8.30831
▁mái	-8.30962
▁tụi	-8.31476
▁sơ	-8.31634
▁chấp	-8.31788
▁chân	-8.32106
▁án	-8.32148
▁mát	-8.32432
▁sẵn	-8.32853
▁thú	-8.33591
▁mời	-8.33739
▁giai	-8.34362
▁dân	-8.34465
▁nghiên	-8.34683
▁đô	-8.3488
▁thuộc	-8.35016
▁dưới	-8.35016
▁ngữ	-8.35454
▁cát	-8.36251
▁phai	-8.36259
▁luận	-8.3667
▁vẻ	-8.37227
▁phờ	-8.37901
▁ích	-8.38126
▁nhắc	-8.39032
▁chạy	-8.39146
▁bê	-8.39201
▁chăm	-8.3926
▁hoa	-8.39286
▁nhóm	-8.39947
▁vật	-8.40062
▁bè	-8.40523
▁trai	-8.4081
▁ngoại	-8.4087
▁nổi	-8.40991
▁chiếc	-8.41452
▁tít	-8.41463
▁tầm	-8.41685
▁chức	-8.41837
▁giảm	-8.42085
▁thái	-8.42154
▁dựng	-8.42434
▁thống	-8.42507
▁sắc	-8.42507
▁ngân	-8.42625
▁nghề	-8.42979
▁quy	-8.43333
▁diện	-8.43454
▁sát	-8.43693
▁tô	-8.43888
▁ban	-8.43903
▁quý	-8.44154
▁nghìn	-8.44171
▁thoải	-8.44171
▁thiếu	-8.4429
▁may	-8.44299
▁đau	-8.45044
▁dục	-8.45054
▁kênh	-8.45405
▁vòng	-8.45862
▁vai	-8.45888
▁gi	-8.46077
▁chế	-8.46332
▁vực	-8.46719
▁lỗi	-8.46975
▁trợ	-8.47212
▁nhật	-8.47336
▁nãy	-8.47583
▁hoạch	-8.47832
▁góc	-8.47956
▁thiện	-8.47956
▁bác	-8.48454
▁hằng	-8.48455
▁nhẹ	-8.48468
▁ngàn	-8.48955
▁xử	-8.48957
▁rít	-8.49083
▁bô	-8.49451
▁rét	-8.49461
▁dòng	-8.49463
▁cười	-8.49968
▁tổ	-8.50007
▁kiện	-8.50349
▁kiểm	-8.50477
▁bo	-8.50849
▁nối	-8.50989
▁đứng	-8.50989
▁phong	-8.5222
▁hy	-8.52281
▁khán	-8.52943
▁cổ	-8.5355
▁mê	-8.5415
▁nữ	-8.54497
▁thanh	-8.54516
▁bót	-8.54518
▁túp	-8.54649
▁tiến	-8.54774
▁cân	-8.5478
▁đạo	-8.5478
▁bai	-8.54888
▁niềm	-8.54913
▁dậy	-8.5518
▁sét	-8.55987
▁rì	-8.56122
▁gờ	-8.56258
▁bệnh	-8.56528
▁phục	-8.5682
▁ghi	-8.57207
▁sớm	-8.57207
▁xét	-8.57209
▁thoại	-8.57481
▁gửi	-8.57618
▁bay	-8.57945
▁luyện	-8.58444
▁hồ	-8.58447
▁tranh	-8.58588
▁nằm	-8.59416
▁chết	-8.59435
▁ép	-8.59976
▁âm	-8.60116
▁lây	-8.60117
▁áo	-8.60132
▁sen	-8.60424
▁ren	-8.60522
▁tuyệt	-8.60963
▁trái	-8.61817
▁sở	-8.61818
▁xíu	-8.62105
▁xảy	-8.62248
▁nét	-8.62826
▁túi	-8.63123
▁quyền	-8.63693
▁ten	-8.64885
▁bọn	-8.65161
▁nhập	-8.65457
a	-8.65671
▁chiều	-8.66201
▁thất	-8.66201
▁trưởng	-8.6635
▁ưu	-8.6635
▁tai	-8.66417
▁dưỡng	-8.665
▁kỷ	-8.665
▁nhờ	-8.66603
▁chữ	-8.66936
▁huynh	-8.66955
▁luật	-8.67101
▁xanh	-8.67267
▁thẳng	-8.67554
▁on	-8.68144
▁nhiệm	-8.68314
▁rai	-8.69259
▁xấu	-8.69542
▁chấm	-8.69697
▁lít	-8.69698
t	-8.69897
▁tôn	-8.69909
▁nhu	-8.69973
▁thuật	-8.70006
▁cáo	-8.70039
▁dạng	-8.70178
▁lĩnh	-8.70629
▁min	-8.70632
▁cảnh	-8.70921
▁vời	-8.70986
▁lát	-8.71107
▁bơ	-8.71129
▁phản	-8.71413
▁vàng	-8.7199
o	-8.7296
▁hỗ	-8.73109
▁đội	-8.73338
▁đen	-8.73487
▁lan	-8.73558
▁mắc	-8.74448
▁mơ	-8.74452
▁phía	-8.74476
▁gây	-8.74936
▁nghỉ	-8.7559
▁dờ	-8.75872
▁niệm	-8.76083
▁nờ	-8.76085
▁mùi	-8.76254
▁hà	-8.76391
▁ngắn	-8.76911
▁nông	-8.7698
▁mệt	-8.77244
▁ổn	-8.77368
▁thiên	-8.77752
▁suốt	-8.77914
▁trách	-8.77914
▁vượt	-8.77914
▁đóng	-8.78139
▁tí	-8.78472
▁xu	-8.78501
▁phá	-8.78506
▁pha	-8.78637
▁mắn	-8.78751
▁bớt	-8.78757
▁tây	-8.78927
▁chiến	-8.79096
▁sàng	-8.79438
▁đớt	-8.7995
▁mừn	-8.80288
▁tảng	-8.80827
▁vờ	-8.80935
▁gu	-8.81335
▁rây	-8.81853
▁tổng	-8.81907
▁khoản	-8.82195
▁dữ	-8.82203
▁ga	-8.82649
▁xuân	-8.8273
▁me	-8.8302
▁rút	-8.83083
▁cải	-8.83311
▁đàn	-8.83446
▁ly	-8.83616
▁nâng	-8.84149
▁hồng	-8.85099
▁chồng	-8.85228
▁khởi	-8.85408
▁lương	-8.85408
▁đăng	-8.8559
▁chả	-8.8589
▁	-8.85943
▁ký	-8.85953
▁đầy	-8.85953
▁cầm	-8.86318
▁vững	-8.865
▁nít	-8.86684
▁bàn	-8.86945
▁tận	-8.87051
▁ngôn	-8.87234
▁hẹn	-8.87235
▁vơ	-8.87555
▁tệ	-8.87605
▁phiếu	-8.8779
▁co	-8.88001
▁phố	-8.88282
▁xếp	-8.88347
▁len	-8.88744
▁vin	-8.88867
▁dừng	-8.8891
▁đông	-8.89161
▁phây	-8.89661
▁dàng	-8.8985
▁đích	-8.90039
▁vệ	-8.90229
▁rộng	-8.90232
u	-8.90401
▁xê	-8.90419
▁hài	-8.90475
▁lẽ	-8.908
▁dám	-8.90991
▁ngược	-8.90991
▁đáp	-8.91
▁đỡ	-8.91183
▁tắc	-8.9176
▁bát	-8.91764
▁lưu	-8.91953
▁hộ	-8.92123
▁khuyên	-8.92146
▁ken	-8.92172
▁thuyết	-8.92534
▁hẳn	-8.93315
▁khỏi	-8.93315
▁khóa	-8.93436
▁giang	-8.93478
▁dõi	-8.94299
▁búc	-8.94498
▁pi	-8.94611
▁mờ	-8.94648
▁sóc	-8.95293
▁độc	-8.95336
▁lãnh	-8.95894
▁đem	-8.95899
▁sánh	-8.96499
▁hứng	-8.96702
▁liền	-8.97108
▁trạng	-8.97108
▁son	-8.97276
▁đức	-8.97311
▁xuyên	-8.97515
▁sin	-8.97528
▁nỗi	-8.97561
▁hiểm	-8.9772
▁tỷ	-8.9772
▁tử	-8.9772
▁địa	-8.9813
▁dầu	-8.9813
▁suất	-8.98339
▁đêm	-8.98353
▁ấn	-8.98956
▁cam	-8.99084
▁nắng	-8.99163
▁két	-8.99164
▁tét	-8.99165
▁thiệu	-8.99371
▁nhảy	-8.99579
▁cửa	-8.99584
▁hề	-9.00208
▁khai	-9.00424
▁nhắn	-9.00628
▁cà	-9.00748
▁phổ	-9.00839
▁vốn	-9.01687
▁mo	-9.0177
▁thư	-9.02312
▁bít	-9.02338
▁căn	-9.02537
▁dựa	-9.0258
▁cận	-9.02973
▁bật	-9.03406
▁tặng	-9.03406
▁trì	-9.03613
▁hữu	-9.03623
▁ngon	-9.03623
▁chống	-9.0384
▁sổ	-9.04058
▁thủ	-9.04064
▁nỗ	-9.04227
▁đít	-9.04276
▁chúc	-9.04296
▁bu	-9.0448
▁mét	-9.04716
▁nuôi	-9.04934
▁kiệm	-9.05154
▁thấp	-9.05375
▁sạch	-9.05375
▁thách	-9.05597
▁phê	-9.05818
▁trao	-9.05834
▁quán	-9.05959
▁tránh	-9.0604
▁đỏ	-9.0604
▁tra	-9.06322
▁vùng	-9.0671
▁mãi	-9.06727
▁phủ	-9.06934
▁quà	-9.06935
▁khánh	-9.06989
▁khổ	-9.0712
▁bồ	-9.07356
▁mẫu	-9.07384
▁tát	-9.07386
▁quỹ	-9.0761
▁vân	-9.08057
▁quần	-9.08063
▁ngờ	-9.08069
▁khu	-9.08259
▁ro	-9.0826
▁y	-9.08289
▁mùa	-9.08293
▁tết	-9.08595
▁bữa	-9.08975
▁đam	-9.09786
▁phép	-9.09896
▁đợi	-9.09896
▁vợ	-9.09896
▁mốt	-9.10127
▁châu	-9.10128
▁vận	-9.10825
▁danh	-9.10874
▁đá	-9.11211
▁cũ	-9.11255
▁chỉnh	-9.11272
▁vay	-9.11297
▁cậu	-9.11763
▁yên	-9.11764
▁va	-9.11867
▁lạ	-9.11887
▁kì	-9.11953
▁thiệt	-9.11998
▁giọng	-9.12947
▁nợ	-9.12948
▁kem	-9.12965
▁hào	-9.1297
▁tín	-9.13015
▁sít	-9.13187
▁chai	-9.13303
▁lãi	-9.13425
▁đón	-9.136
▁bại	-9.14149
▁bánh	-9.14398
▁soát	-9.14398
▁xinh	-9.1445
▁khủng	-9.15116
▁tùy	-9.15361
▁chục	-9.15605
▁nhàng	-9.15762
▁góp	-9.16589
▁bổng	-9.16614
▁bận	-9.16836
▁chen	-9.17132
▁phan	-9.17653
▁tiện	-9.18586
▁can	-9.18858
▁chu	-9.18991
▁chán	-9.1909
▁ngại	-9.19092
▁đeo	-9.19096
▁bền	-9.1933
▁lệ	-9.19334
▁mừng	-9.19354
▁hương	-9.196
p	-9.19621
▁hi	-9.19774
nh	-9.1982
▁hậu	-9.19855
▁trắng	-9.19855
▁mít	-9.20114
▁săn	-9.20367
▁sài	-9.20624
▁tỉnh	-9.20887
▁cốt	-9.20982
▁trực	-9.214
▁hảo	-9.21441
▁đổ	-9.21611
▁đảm	-9.21659
▁bin	-9.21782
▁che	-9.22134
▁buộc	-9.22443
▁thúc	-9.22466
▁ánh	-9.22628
▁âu	-9.22707
▁cung	-9.2274
▁ơ	-9.22875
▁viu	-9.22979
▁lành	-9.23038
▁thằng	-9.23232
▁cám	-9.23329
▁thắng	-9.23498
▁lu	-9.23869
▁niu	-9.23872
▁dây	-9.24029
▁nặng	-9.24295
▁se	-9.24768
▁hầu	-9.2483
▁hoàng	-9.24869
▁khám	-9.25003
▁đào	-9.25107
▁pót	-9.25368
▁thí	-9.25373
▁bét	-9.25993
▁eo	-9.26225
c	-9.26424
▁cắt	-9.26454
▁lê	-9.26551
▁gòn	-9.27006
▁căng	-9.27008
▁trân	-9.27276
▁rơi	-9.27284
▁ghét	-9.27554
▁giàu	-9.2756
▁tuyển	-9.27828
▁hòa	-9.27835
▁mỏi	-9.28385
▁lạc	-9.28394
▁vê	-9.28941
▁gắn	-9.29215
▁lầm	-9.29501
▁nắm	-9.29501
▁bóng	-9.29803
▁kim	-9.29894
▁kin	-9.30252
▁giây	-9.30355
▁quảng	-9.30599
▁biểu	-9.30918
▁đét	-9.30919
▁nâu	-9.31204
▁ben	-9.31248
▁tê	-9.31286
▁sửa	-9.31333
▁hút	-9.3149
▁sếp	-9.32355
▁tóp	-9.32355
▁khí	-9.32396
▁cu	-9.32566
▁kéo	-9.32645
▁tốn	-9.32667
▁xứng	-9.32941
▁khóc	-9.33034
▁đòi	-9.33227
▁ôn	-9.33293
▁trà	-9.3357
▁răng	-9.33812
▁nguyễn	-9.34106
▁đoán	-9.34106
▁rủi	-9.34122
▁đu	-9.34338
▁má	-9.34602
▁gỡ	-9.34697
▁siêu	-9.34725
▁lạnh	-9.35006
▁biện	-9.35292
▁đuổi	-9.35292
▁ước	-9.35292
▁kiên	-9.35292
▁thở	-9.3589
▁hôn	-9.36206
▁gô	-9.36459
▁đợt	-9.36491
▁kém	-9.36493
▁vâng	-9.36499
▁lét	-9.36795
▁ủng	-9.37403
▁khô	-9.37569
▁kêu	-9.37805
▁chuyến	-9.38317
▁phạm	-9.38317
▁thơ	-9.38318
▁thưởng	-9.38934
▁đơ	-9.39195
▁chụp	-9.39243
▁dô	-9.39257
▁khảo	-9.4025
▁thuốc	-9.40491
▁bức	-9.41121
▁nấu	-9.41438
▁líp	-9.4144
▁song	-9.41654
▁phiên	-9.41761
▁phô	-9.41923
▁vít	-9.41937
▁biển	-9.42074
▁trừ	-9.42088
▁nút	-9.42393
▁mây	-9.42394
▁pờ	-9.43035
▁nóng	-9.43416
▁ủa	-9.43684
▁be	-9.43943
▁dấu	-9.44006
▁mếch	-9.44006
▁đẩy	-9.44332
▁dơ	-9.44405
▁từn	-9.44705
▁sơn	-9.44812
▁chối	-9.44987
▁khắc	-9.44987
▁giấy	-9.44989
▁thao	-9.44994
▁rin	-9.45094
▁trét	-9.45317
▁khứ	-9.45646
▁đo	-9.45674
▁giảng	-9.45858
▁mềm	-9.45977
▁lẻ	-9.45977
▁tan	-9.46451
▁đê	-9.4696
▁lao	-9.47035
▁o	-9.47182
▁lin	-9.47191
▁chậm	-9.47312
▁miễn	-9.47649
▁lối	-9.47653
▁re	-9.48013
▁ninh	-9.4809
▁khẩu	-9.48326
▁tổn	-9.48793
▁im	-9.48883
▁não	-9.49007
▁dét	-9.49352
▁thai	-9.49375
▁cập	-9.49693
▁lá	-9.49905
▁gốc	-9.50038
▁nồ	-9.50298
ờ	-9.50568
▁huy	-9.5072
▁hồn	-9.5085
▁thừa	-9.5108
▁mại	-9.51083
▁nạ	-9.51422
▁mò	-9.51731
▁rửa	-9.5178
▁thấu	-9.5178
▁thụ	-9.52472
▁u	-9.53131
▁huống	-9.53196
▁lẫn	-9.53196
▁phỏng	-9.53196
▁dịp	-9.53202
▁mảng	-9.53553
▁thùy	-9.53555
▁lót	-9.53915
▁tri	-9.54395
▁giấc	-9.54633
▁bí	-9.54977
▁đoàn	-9.54995
▁thuần	-9.55005
▁ve	-9.55312
▁nai	-9.55607
▁gồ	-9.55659
▁tắt	-9.55724
▁viện	-9.55724
▁tùng	-9.55732
▁lông	-9.55873
▁ru	-9.55981
▁rượu	-9.5609
▁rèn	-9.56096
▁lộ	-9.56227
▁bạc	-9.56456
▁khối	-9.56458
▁nghiêm	-9.56458
▁gồm	-9.56485
▁phít	-9.56519
▁bổ	-9.56789
▁nửa	-9.56826
▁xít	-9.57201
▁te	-9.57478
▁hoài	-9.57569
▁cơm	-9.57926
▁ke	-9.58223
▁duyên	-9.58326
▁thơm	-9.5835
▁nhi	-9.58356
▁thịt	-9.58425
▁phẩy	-9.58692
▁tái	-9.587
▁khái	-9.58745
▁hàn	-9.58797
▁giận	-9.5907
▁úc	-9.59449
▁nhở	-9.5945
▁tả	-9.59743
▁lặng	-9.59829
▁bút	-9.59831
▁bách	-9.59836
▁thuận	-9.6021
▁chữa	-9.60638
▁lóc	-9.60979
▁meo	-9.61399
▁phen	-9.61792
▁he	-9.62471
▁phấn	-9.62924
▁rưỡi	-9.63317
▁rờ	-9.63668
▁gương	-9.63713
▁cục	-9.63754
▁nhuận	-9.64109
▁tạm	-9.64117
▁hại	-9.64148
▁quê	-9.64459
▁quyển	-9.64508
▁kích	-9.6451
▁tò	-9.64842
▁ẩm	-9.64908
▁nọ	-9.65011
e	-9.65116
▁tồn	-9.65329
▁lơ	-9.65673
▁lứa	-9.65713
▁gọn	-9.65713
▁vẽ	-9.65713
▁tốc	-9.65752
▁banh	-9.66072
▁ram	-9.66183
▁nghi	-9.66931
▁bấm	-9.66932
▁cháu	-9.66932
▁kịch	-9.66932
▁thảo	-9.67355
▁le	-9.67665
▁khôi	-9.6782
▁bảng	-9.67938
▁phu	-9.68004
▁lờ	-9.68123
▁hấp	-9.68168
▁ắp	-9.68998
▁mâu	-9.68999
▁chăng	-9.69001
▁át	-9.69067
▁đắt	-9.69417
▁lỡ	-9.69837
▁sần	-9.69839
▁tếch	-9.69863
▁nh	-9.69991
▁bon	-9.7005
▁hè	-9.7026
▁tĩnh	-9.70683
▁rẻ	-9.70683
▁trần	-9.70683
▁sóp	-9.71535
▁thiền	-9.71535
▁miếng	-9.72396
▁ngọt	-9.72396
▁tắm	-9.72829
▁túc	-9.72835
▁long	-9.73059
▁sóng	-9.73263
▁rồ	-9.73653
▁tỏ	-9.73683
▁seo	-9.73726
▁phom	-9.73873
▁nhé	-9.74126
▁kịp	-9.74139
▁rời	-9.74195
▁no	-9.74302
▁phối	-9.74695
▁mẽ	-9.75022
▁nguyện	-9.75466
▁nhiệt	-9.75466
▁chàng	-9.75473
▁ôm	-9.7583
▁già	-9.75896
▁dày	-9.75913
▁ráp	-9.75913
▁bày	-9.75931
▁phơ	-9.76281
▁gói	-9.76362
▁sữa	-9.76812
▁đằng	-9.76812
▁nguy	-9.76812
▁bơi	-9.76953
▁khoán	-9.77713
▁óp	-9.77719
▁ấm	-9.77719
▁lược	-9.77719
▁tươi	-9.77732
▁bối	-9.77953
▁lười	-9.78175
▁tải	-9.78693
g	-9.79048
▁hoảng	-9.79095
▁kèm	-9.79099
▁mụn	-9.79558
▁kính	-9.79565
▁khía	-9.79585
▁ôi	-9.7966
▁tiếc	-9.80023
▁rớt	-9.80023
▁cột	-9.80492
▁giám	-9.80546
▁rối	-9.8096
▁vũ	-9.8096
▁tren	-9.80984
▁đừn	-9.81427
▁sót	-9.81432
▁lõi	-9.81905
▁miền	-9.81905
▁tẩy	-9.81905
▁phét	-9.81907
▁khen	-9.81947
▁hiếu	-9.82381
▁nhạy	-9.82381
▁tầng	-9.82386
▁ngôi	-9.82399
▁trim	-9.82418
▁s	-9.82611
▁nhãn	-9.82862
▁típ	-9.82889
▁kiu	-9.82952
▁phôn	-9.83016
▁ngũ	-9.83341
▁hộp	-9.83366
▁nho	-9.83858
▁xài	-9.84318
▁ê	-9.84773
▁đì	-9.84788
▁bụng	-9.84797
▁ngoái	-9.84797
▁chê	-9.84816
ế	-9.8519
▁phe	-9.85226
▁den	-9.8532
▁ho	-9.8546
▁tui	-9.8576
▁thủy	-9.8579
▁ao	-9.86066
▁hót	-9.86276
▁tạp	-9.86278
ô	-9.86508
▁thả	-9.86681
▁trầm	-9.86772
▁ác	-9.87103
▁ngơi	-9.87273
▁bắc	-9.87273
▁hạ	-9.87615
▁dọn	-9.87775
▁xích	-9.87776
▁ngang	-9.87796
▁dạo	-9.88008
▁đinh	-9.88177
▁tỉ	-9.88271
▁lếch	-9.8828
▁ghêm	-9.88301
▁rác	-9.88786
▁liệt	-9.88787
▁nốt	-9.88787
▁đám	-9.88847
▁đà	-9.89109
▁cãi	-9.89298
▁vét	-9.89314
▁tách	-9.89318
▁d	-9.90207
▁khúc	-9.90326
▁điệp	-9.90326
▁đỉnh	-9.90326
▁dừn	-9.90842
▁dương	-9.90844
▁sớt	-9.90845
▁lệch	-9.9085
▁phóng	-9.90866
▁chừng	-9.91372
▁h	-9.91635
▁chim	-9.9167
▁nhấn	-9.91888
▁síp	-9.91888
▁phú	-9.92391
▁gấp	-9.92415
▁thoát	-9.92415
▁cứng	-9.92595
▁xô	-9.92898
▁khấu	-9.92944
▁cưới	-9.92945
▁miệng	-9.93476
▁mì	-9.94002
▁bậc	-9.94011
▁thoảng	-9.94011
▁xịt	-9.94011
▁phán	-9.94167
▁lọc	-9.94552
▁thuê	-9.94559
▁non	-9.94913
▁sê	-9.9509
▁dồi	-9.95632
▁lướt	-9.95632
▁trông	-9.95645
▁bó	-9.96007
▁lặp	-9.96179
▁tiểu	-9.96179
▁dít	-9.96183
▁boi	-9.96389
▁màn	-9.96452
▁mật	-9.96728
▁ven	-9.96805
▁vỡ	-9.97281
▁trôi	-9.97298
▁tuệ	-9.9731
▁bông	-9.97448
▁mu	-9.97811
▁lãng	-9.97836
▁phận	-9.97836
▁đèn	-9.97853
▁dai	-9.97864
▁ừn	-9.98229
▁vé	-9.98381
▁tủ	-9.9843
▁cấu	-9.98957
▁huyền	-9.98957
▁đấu	-9.98957
▁bóp	-9.98967
▁máu	-9.98982
▁tốp	-9.99016
▁quang	-9.9914
▁đin	-9.9942
▁bia	-9.99447
▁khe	-9.99474
▁dũng	-9.99522
▁hãng	-9.99522
▁ngừng	-9.99522
▁cót	-9.99957
▁gợi	-10.0009
▁sung	-10.003
▁rao	-10.0065
▁hứa	-10.0066
▁kíp	-10.0067
▁pa	-10.0124
▁đắc	-10.0124
▁man	-10.0168
▁thua	-10.0197
▁l	-10.0219
▁nơ	-10.0236
▁ngọc	-10.024
▁quét	-10.024
▁bích	-10.024
▁bốt	-10.025
▁nin	-10.0269
▁muộn	-10.0298
▁hải	-10.0327
▁chốt	-10.0357
▁thăm	-10.0357
▁trúc	-10.0357
▁tiềm	-10.0416
▁vội	-10.0416
▁lễ	-10.0416
y	-10.0422
▁gai	-10.0433
▁khát	-10.0439
▁lưng	-10.0476
▁quân	-10.0476
▁hàm	-10.0485
▁hạng	-10.0549
▁hen	-10.0604
▁dính	-10.0656
▁dáng	-10.0657
▁đát	-10.0661
▁giãn	-10.0717
▁khuyến	-10.0717
▁rảnh	-10.0717
▁trồng	-10.0718
▁tỏa	-10.072
▁cóp	-10.0732
▁sàn	-10.0778
▁mưa	-10.0779
▁tấm	-10.0779
▁thạc	-10.0902
▁nhẫn	-10.0902
▁phức	-10.0902
▁bóc	-10.0904
▁lỗ	-10.096
▁thắc	-10.0965
▁cồ	-10.0976
▁hao	-10.0979
▁cản	-10.0982
▁kẻ	-10.1028
▁thận	-10.1028
▁đập	-10.1028
▁chát	-10.1028
▁khoảnh	-10.1029
▁tú	-10.1079
▁dở	-10.1091
▁rát	-10.1091
▁hét	-10.1092
▁ghen	-10.1092
▁trơn	-10.1092
▁trinh	-10.1093
▁than	-10.1095
▁mon	-10.1105
▁ng	-10.1114
▁tròn	-10.113
▁ne	-10.115
▁chửi	-10.1155
▁tội	-10.1155
▁lạm	-10.1162
▁quát	-10.1173
▁tán	-10.1188
▁lượt	-10.1219
▁phiền	-10.1219
▁quép	-10.1219
▁din	-10.1222
▁bù	-10.127
▁chạm	-10.1283
▁miu	-10.1306
▁mã	-10.1309
▁r	-10.1345
▁hò	-10.1347
▁tần	-10.1348
▁tóm	-10.1348
▁khơi	-10.1348
▁râu	-10.1349
▁dị	-10.138
▁phun	-10.1381
▁hối	-10.1415
▁n	-10.1441
▁trụ	-10.1479
▁móc	-10.148
▁tàu	-10.148
▁trọn	-10.1481
▁thang	-10.1484
▁lái	-10.1489
▁đột	-10.1505
▁biu	-10.1525
▁hô	-10.153
▁ghê	-10.1543
▁tiêm	-10.1546
▁tân	-10.1546
▁thẻ	-10.1546
▁chét	-10.1546
▁đốc	-10.1613
▁trích	-10.1615
▁cốc	-10.1627
▁hê	-10.1654
▁cơn	-10.166
▁kí	-10.1671
▁chiếm	-10.168
▁cặp	-10.168
▁quỳnh	-10.168
▁kít	-10.1681
▁rum	-10.1685
é	-10.1742
▁nộp	-10.1747
▁mũi	-10.1749
▁hạt	-10.1749
▁cẩn	-10.1815
▁táo	-10.1816
▁gió	-10.1835
▁bôi	-10.1842
▁giày	-10.1884
▁chếch	-10.1885
▁đai	-10.1948
▁chóng	-10.1956
▁nót	-10.1962
▁gũi	-10.2022
▁thỉnh	-10.2022
▁chó	-10.2037
▁gà	-10.2087
▁giường	-10.2092
▁dim	-10.2133
▁cởi	-10.2162
▁cỡ	-10.2162
▁lích	-10.2162
▁vinh	-10.2217
▁soi	-10.2222
▁hổ	-10.223
▁nạn	-10.223
▁nghèo	-10.2233
▁xì	-10.2234
▁dưng	-10.2237
▁phao	-10.224
▁tha	-10.2287
▁cắp	-10.2305
▁đậm	-10.2305
▁dâu	-10.2305
▁lì	-10.2305
▁bề	-10.2309
▁chiếu	-10.2377
▁chuỗi	-10.2377
▁phạt	-10.2377
▁hít	-10.2377
▁biên	-10.2382
▁lung	-10.2387
▁th	-10.2422
▁heo	-10.2452
▁nen	-10.2455
ó	-10.2461
▁ph	-10.2468
▁vả	-10.2517
▁hùng	-10.2522
▁trưa	-10.2522
▁điển	-10.2522
▁vồ	-10.2522
▁thỏa	-10.2523
▁dịu	-10.2524
▁hông	-10.2528
▁bỗng	-10.2596
▁giấu	-10.2596
▁lừa	-10.2596
▁đắp	-10.2596
in	-10.26
▁khung	-10.2608
▁dán	-10.2669
▁uy	-10.267
▁cánh	-10.268
▁hắt	-10.2744
▁mực	-10.2744
▁đùa	-10.2744
▁khao	-10.2745
▁chảy	-10.2746
▁dinh	-10.276
▁tông	-10.2771
▁sông	-10.2774
▁gút	-10.282
▁sạn	-10.282
▁thuẫn	-10.282
▁nhựa	-10.2895
▁đẻ	-10.2895
▁treo	-10.2897
▁lôi	-10.2966
▁sim	-10.2987
ố	-10.3045
▁sướng	-10.3049
▁lách	-10.3049
▁cúp	-10.3049
▁sam	-10.3077
▁mãn	-10.3088
▁ci	-10.3094
▁bò	-10.3126
▁cai	-10.3135
▁ch	-10.3176
▁dư	-10.3199
▁thù	-10.32
▁mồ	-10.3202
▁lửa	-10.3204
▁ngẫm	-10.3204
▁khiếp	-10.3204
▁khích	-10.3205
▁trau	-10.3209
▁dắt	-10.3283
▁rốt	-10.3283
▁sồ	-10.3283
á	-10.3316
▁đan	-10.335
▁de	-10.3357
▁xóm	-10.3362
▁rót	-10.3362
▁niên	-10.3366
▁nao	-10.338
▁g	-10.3388
▁đựng	-10.3523
▁say	-10.3528
ừn	-10.3573
▁cư	-10.36
▁c	-10.3618
▁xen	-10.3666
▁guy	-10.3683
▁đắn	-10.3686
▁đảo	-10.3686
▁điệu	-10.3686
▁phớt	-10.3686
▁ghép	-10.3687
▁nát	-10.3687
▁canh	-10.3705
▁tựu	-10.3751
à	-10.3759
▁nghị	-10.3769
▁mượn	-10.3769
▁óc	-10.3769
▁hận	-10.3852
▁lục	-10.3852
▁mốc	-10.3852
▁nhầm	-10.3852
▁x	-10.3893
ơ	-10.3899
▁kho	-10.3921
▁sứ	-10.3935
▁dĩ	-10.3936
▁huyết	-10.3937
▁iu	-10.3963
ch	-10.3964
▁cú	-10.4009
▁cử	-10.4019
▁gêm	-10.4021
▁khuyết	-10.4021
▁lũy	-10.4021
▁hoang	-10.4049
ồ	-10.41
▁po	-10.4106
▁bếp	-10.4107
▁sây	-10.4107
▁vết	-10.4107
▁nu	-10.4113
▁tung	-10.4171
▁sốt	-10.418
▁chợ	-10.4191
▁phật	-10.4193
▁tuấn	-10.4193
▁vẹn	-10.4193
▁đạp	-10.4193
▁cừn	-10.4193
▁nây	-10.4193
▁khoe	-10.4193
▁đặn	-10.4279
▁rích	-10.428
▁vất	-10.428
▁săm	-10.428
▁mùng	-10.4282
▁leo	-10.4283
▁b	-10.4304
▁ngăn	-10.4367
▁gót	-10.4367
ai	-10.4423
ây	-10.4446
ét	-10.445
ạ	-10.445
▁phó	-10.4451
▁mẻ	-10.4456
▁lừn	-10.4456
▁chay	-10.446
▁pin	-10.4494
ú	-10.4541
▁ấp	-10.4546
▁diệu	-10.4635
▁ghế	-10.4635
▁hãi	-10.4635
▁tồi	-10.464
▁nga	-10.4657
▁rau	-10.4684
▁lộn	-10.4686
▁v	-10.4691
▁mộ	-10.472
ò	-10.4722
▁dối	-10.4726
▁thiểu	-10.4726
▁thăng	-10.4726
▁xương	-10.4726
▁thải	-10.4735
ư	-10.4813
▁kỉ	-10.4818
▁kẹt	-10.4818
▁mến	-10.4818
▁pồ	-10.4818
▁tấn	-10.4818
▁đầm	-10.4818
▁đậu	-10.4818
▁hép	-10.4818
▁mỏng	-10.4819
▁thưa	-10.4825
▁phiu	-10.4834
▁hư	-10.4906
▁chặt	-10.491
▁kệ	-10.491
▁lường	-10.491
▁mệnh	-10.491
▁vừn	-10.4911
▁m	-10.4952
▁ngập	-10.5004
▁lắc	-10.5004
▁ngu	-10.5005
▁dao	-10.5036
▁binh	-10.5051
ệ	-10.5091
í	-10.5092
▁cọ	-10.5097
▁thác	-10.5098
▁nhiễm	-10.5098
▁sắm	-10.5098
▁đúc	-10.5098
▁vây	-10.5099
▁kìa	-10.5105
▁rủ	-10.5112
▁phơi	-10.5123
▁bá	-10.5149
▁né	-10.5185
▁lân	-10.5193
▁hiếm	-10.5193
▁ních	-10.5193
▁núi	-10.5193
▁ốm	-10.5193
▁rào	-10.5194
en	-10.5195
▁cay	-10.5203
▁ồn	-10.5279
▁cường	-10.529
▁nghiện	-10.529
▁bầu	-10.529
▁rúp	-10.529
▁bực	-10.529
▁que	-10.5294
▁bốc	-10.5299
▁gơ	-10.5306
▁đ	-10.5323
▁gội	-10.5387
▁hiến	-10.5387
▁nhạt	-10.5387
▁ọp	-10.5387
▁chênh	-10.5389
▁nhét	-10.5391
▁đài	-10.5396
▁phin	-10.5447
▁lon	-10.5453
▁tr	-10.5457
▁tre	-10.5479
▁còm	-10.5485
▁muối	-10.5485
▁loạn	-10.5485
▁t	-10.5545
▁tồ	-10.5574
▁ẩn	-10.5584
▁xoay	-10.5584
▁triết	-10.5584
▁rộn	-10.5584
▁gien	-10.5586
▁cáp	-10.5597
▁chinh	-10.5605
▁cụm	-10.5614
▁điên	-10.5628
▁lâm	-10.5684
▁thấm	-10.5684
▁tường	-10.5684
▁dích	-10.5684
▁chở	-10.5684
▁băng	-10.5684
▁neo	-10.5686
ì	-10.5779
▁lỏng	-10.5785
▁trưng	-10.5785
▁xịn	-10.5785
▁ngã	-10.5785
▁my	-10.5785
▁khẳng	-10.5887
▁lắp	-10.5887
▁chua	-10.5894
▁móng	-10.5894
▁thuế	-10.5895
▁tím	-10.5904
▁đao	-10.5918
ớ	-10.5942
▁vở	-10.599
▁thỏi	-10.5992
▁mông	-10.6066
▁vĩ	-10.6093
▁chuông	-10.6094
▁ảo	-10.6095
▁lệnh	-10.6098
▁ung	-10.6105
ề	-10.6197
▁khuôn	-10.6199
▁ngực	-10.6199
▁hôi	-10.6207
▁quai	-10.6239
▁nan	-10.6255
át	-10.6294
▁đe	-10.63
▁hiền	-10.6306
▁hiển	-10.6306
▁thánh	-10.6306
▁mích	-10.6306
▁gâu	-10.6306
▁béo	-10.6337
▁tràn	-10.6389
▁chăn	-10.6413
▁thà	-10.6413
▁mộng	-10.6418
▁hau	-10.6434
▁sốc	-10.6467
▁cống	-10.6509
▁cương	-10.6522
▁cắm	-10.6522
▁thẩm	-10.6522
▁thập	-10.6522
▁họp	-10.656
▁dặn	-10.6632
▁dồn	-10.6632
▁guốc	-10.6632
▁thâm	-10.6632
▁mạch	-10.6632
▁uyên	-10.6632
▁lốc	-10.6632
ết	-10.6706
▁nếch	-10.6743
▁cúc	-10.6744
▁trào	-10.6749
▁tôm	-10.6769
▁tụ	-10.6848
ắ	-10.6854
▁giật	-10.6855
▁khắp	-10.6855
▁trận	-10.6855
▁tuyến	-10.6855
▁tuân	-10.6855
▁trữ	-10.6855
▁tót	-10.6855
▁lớt	-10.6856
▁út	-10.6856
▁túng	-10.6862
▁bột	-10.6898
▁xóa	-10.6969
▁bão	-10.697
▁thúy	-10.6974
▁gan	-10.6998
▁lam	-10.7003
▁bắp	-10.7084
▁phước	-10.7084
▁tật	-10.7084
▁mèo	-10.7084
▁truy	-10.7084
▁vớt	-10.7085
▁ồ	-10.7099
▁bào	-10.7102
▁ron	-10.7179
▁nổ	-10.7195
▁trốn	-10.72
▁xả	-10.72
▁quãng	-10.72
▁nạp	-10.7204
êu	-10.7253
▁sạc	-10.7318
▁dứt	-10.7318
▁rếch	-10.7318
▁trễ	-10.7318
▁phở	-10.7318
▁chặng	-10.7318
▁nghịch	-10.7318
▁rừng	-10.7318
▁nén	-10.7324
▁thuyền	-10.7437
▁đỗ	-10.7437
▁bạo	-10.7437
ời	-10.7452
▁họa	-10.7473
▁khuya	-10.7557
▁loài	-10.7557
▁vứt	-10.7557
▁đâm	-10.7557
▁hưng	-10.7562
▁roi	-10.7584
h	-10.7631
▁cán	-10.7632
▁qu	-10.766
▁nản	-10.7679
▁pát	-10.7679
▁tiệc	-10.7679
▁yến	-10.7679
▁ngạc	-10.7679
▁trống	-10.768
▁đếm	-10.768
▁đàm	-10.7686
▁bùng	-10.7687
▁tua	-10.7721
▁tơn	-10.7774
▁nê	-10.7797
▁dẹp	-10.7803
▁giặt	-10.7803
▁ngưỡng	-10.7803
▁ống	-10.7803
▁nhủ	-10.7803
▁dì	-10.7803
▁mác	-10.7807
▁tị	-10.7926
▁vườn	-10.7928
▁ân	-10.7928
▁cớt	-10.7929
▁nhắm	-10.8054
▁xăng	-10.8054
▁deo	-10.8057
▁tuyết	-10.8058
▁keo	-10.806
▁dời	-10.8093
▁thờ	-10.8179
▁bì	-10.818
▁cháy	-10.8183
▁trứng	-10.8183
▁đẳng	-10.8183
▁rừn	-10.8183
▁dát	-10.8183
▁chìm	-10.8184
▁quýt	-10.82
▁huấn	-10.8312
▁dê	-10.8313
▁ngô	-10.8441
ấ	-10.8441
▁hiệp	-10.8444
▁hoãn	-10.8444
▁quận	-10.8444
▁đụng	-10.8444
▁nụ	-10.8444
▁ran	-10.8456
▁noi	-10.8459
▁ranh	-10.8557
ả	-10.857
ù	-10.8574
▁lùi	-10.8577
▁ngoan	-10.8577
▁thèm	-10.8577
▁tộc	-10.8577
▁nhịp	-10.8578
▁sưu	-10.8596
▁tớ	-10.8706
▁thắn	-10.8712
▁dường	-10.8712
▁hóc	-10.8712
▁sút	-10.8712
▁bạch	-10.8713
▁chánh	-10.8714
▁đua	-10.872
▁đáo	-10.8722
▁trít	-10.8745
ừ	-10.8827
▁tạ	-10.8836
▁tiu	-10.8847
▁lão	-10.8849
▁ngắm	-10.8849
▁gánh	-10.8849
▁thọ	-10.8866
▁thịnh	-10.8873
▁chép	-10.8988
▁sâm	-10.8988
▁sập	-10.8988
▁trộm	-10.8988
▁trộn	-10.8988
▁dược	-10.8988
▁căm	-10.8989
▁trây	-10.8989
▁đốt	-10.899
▁láp	-10.8992
▁chíp	-10.9013
▁phái	-10.9029
▁sôi	-10.9099
▁dọc	-10.9129
▁bám	-10.9133
▁chanh	-10.9143
▁bum	-10.9147
▁vang	-10.9152
▁nề	-10.9268
▁mượt	-10.9272
▁ức	-10.9272
▁nhỉ	-10.9272
▁soạn	-10.9273
▁tru	-10.934
ần	-10.9405
▁tun	-10.9412
▁liều	-10.9417
▁mặn	-10.9417
▁phếch	-10.9417
▁hâu	-10.9417
▁buông	-10.9417
▁mịn	-10.9418
▁chóp	-10.9419
▁ám	-10.9552
ất	-10.9558
▁kha	-10.9561
▁băn	-10.9563
▁nở	-10.9564
▁nêu	-10.9566
▁khoan	-10.9586
▁trọ	-10.9644
▁đãi	-10.9647
▁vu	-10.9709
▁khoăn	-10.9713
▁khéo	-10.9713
▁nến	-10.9713
▁mổ	-10.9713
▁vỏ	-10.9713
▁mần	-10.9714
▁cất	-10.9714
▁rách	-10.9714
▁hốt	-10.9714
▁giơ	-10.9717
▁lơn	-10.9732
▁run	-10.9733
▁mù	-10.9855
▁dỗ	-10.986
▁dừa	-10.9865
▁nhặt	-10.9865
▁đống	-10.9868
▁tia	-10.9904
▁han	-10.9968
▁kháng	-11.0007
▁lăn	-11.0018
▁dép	-11.0019
▁khiêm	-11.0019
▁váy	-11.0019
▁tịch	-11.0019
▁ruột	-11.0019
▁trùng	-11.0021
▁bọt	-11.0175
▁gạch	-11.0175
▁hâm	-11.0175
▁mút	-11.0175
▁nắp	-11.0175
▁pơ	-11.0175
▁rép	-11.0175
▁thóc	-11.0175
▁chơ	-11.019
▁trô	-11.0326
▁buôn	-11.0333
▁bẩn	-11.0334
▁gạo	-11.0334
▁hắn	-11.0334
▁hỏng	-11.0334
▁đuối	-11.0334
▁úp	-11.0334
▁kín	-11.0345
▁nồng	-11.0351
▁bộc	-11.0368
▁rê	-11.0375
▁ham	-11.0395
▁dạn	-11.0403
▁chứa	-11.0421
âu	-11.0487
▁đè	-11.049
▁mảnh	-11.0495
▁pê	-11.0495
▁vặt	-11.0495
▁đớn	-11.0495
▁pích	-11.0495
▁hủy	-11.0495
▁bỉ	-11.0495
▁gom	-11.0498
▁lộc	-11.0499
▁chiêu	-11.0502
▁biếng	-11.0504
▁go	-11.057
ợ	-11.0652
▁cỏ	-11.0654
▁mí	-11.0656
▁ghé	-11.0656
▁pô	-11.0659
▁thầm	-11.0659
▁rắc	-11.0659
▁lết	-11.0659
▁vy	-11.066
▁then	-11.0662
▁gen	-11.0663
▁vải	-11.067
▁nhánh	-11.0686
ên	-11.0703
ới	-11.0713
▁chan	-11.074
▁cóc	-11.0792
ở	-11.0819
▁súp	-11.0826
▁truyện	-11.0826
▁kịt	-11.0826
▁ớt	-11.0826
▁tụt	-11.0828
▁lum	-11.0843
▁đàng	-11.0844
▁kh	-11.0935
▁tù	-11.0988
ọ	-11.0992
▁lí	-11.0993
▁cấm	-11.0995
▁kiều	-11.0995
▁mầm	-11.0995
▁lăng	-11.0996
▁bãi	-11.0998
▁thùng	-11.1003
▁ách	-11.1033
▁chít	-11.1045
▁rinh	-11.1076
▁củ	-11.1162
▁dốt	-11.1167
▁kẹo	-11.1167
▁thiệp	-11.1167
▁đĩa	-11.1167
▁trắc	-11.1168
▁lấp	-11.1168
▁gét	-11.1168
▁khoáng	-11.117
▁giết	-11.1171
▁phót	-11.1171
▁rem	-11.1182
▁rơ	-11.1204
▁hu	-11.1287
▁xứ	-11.1339
ể	-11.1341
▁ngắt	-11.1343
▁nhậu	-11.1343
▁nẵng	-11.1343
▁tiệm	-11.1343
▁viễn	-11.1343
▁bừn	-11.1343
▁sấy	-11.1343
▁hở	-11.1343
▁mớt	-11.1344
▁tàn	-11.1346
▁nôm	-11.1397
▁tho	-11.1491
ei	-11.1503
▁lim	-11.1507
▁đố	-11.1508
▁thô	-11.1509
▁khiển	-11.1521
▁ngọn	-11.1522
▁kép	-11.1522
▁chôn	-11.1524
▁cưng	-11.153
▁bội	-11.1543
on	-11.1685
▁xí	-11.1701
▁ngộ	-11.1702
▁ngào	-11.1703
▁rãi	-11.1703
▁sụp	-11.1703
▁tháp	-11.1703
▁lúa	-11.1704
▁trục	-11.1706
▁miêu	-11.1713
oi	-11.1742
▁chang	-11.1773
▁vịt	-11.1775
ít	-11.1834
ụ	-11.1885
▁dàn	-11.1888
▁xoa	-11.1888
▁gấu	-11.1888
▁thoáng	-11.1888
▁triệt	-11.1888
▁trại	-11.1888
▁tướng	-11.1888
▁mót	-11.1889
▁tớt	-11.1891
▁phích	-11.1894
▁tòa	-11.1897
▁lạt	-11.1902
▁chui	-11.1925
▁cổng	-11.1943
▁don	-11.1955
▁lang	-11.1973
ê	-11.1976
ăm	-11.2074
▁lọ	-11.2075
ậ	-11.2077
▁nướng	-11.2077
▁tráng	-11.2077
▁nớt	-11.2077
▁vương	-11.2078
▁lay	-11.2086
▁guyn	-11.2089
▁ổ	-11.2127
▁hỗn	-11.2136
ộ	-11.2264
▁chuối	-11.2269
▁tựa	-11.227
▁mỡ	-11.227
▁vấp	-11.227
▁quin	-11.227
▁gát	-11.227
▁lốt	-11.227
▁ngây	-11.227
▁trúng	-11.2271
▁tịt	-11.2272
▁tuyên	-11.2273
▁thỏ	-11.2459
ặ	-11.2465
▁bẩy	-11.2465
▁bắn	-11.2465
▁ốp	-11.2465
▁dã	-11.2466
▁bâu	-11.2466
▁ném	-11.2471
▁rung	-11.2487
▁bún	-11.2559
ói	-11.2636
ã	-11.2663
▁gãy	-11.2665
▁hước	-11.2665
▁kiệt	-11.2665
▁ngẫu	-11.2665
▁sáp	-11.2665
▁trội	-11.2665
▁lùng	-11.2666
▁phì	-11.2666
▁xép	-11.2666
▁thoa	-11.2667
▁giành	-11.267
▁chiết	-11.2675
▁chích	-11.2676
▁êm	-11.2677
▁chớ	-11.268
▁phon	-11.2809
▁vo	-11.2859
▁chì	-11.2866
▁té	-11.2868
▁bụi	-11.287
▁bọc	-11.287
▁nhường	-11.287
▁trâu	-11.287
▁chớt	-11.2872
▁củng	-11.2874
▁voi	-11.2875
▁sanh	-11.2905
▁đôn	-11.2963
▁goa	-11.297
ầ	-11.3072
▁ge	-11.3073
▁xỉ	-11.3073
▁trăn	-11.3077
▁dấn	-11.3078
▁hẹp	-11.3078
▁nuối	-11.3078
▁pây	-11.3078
▁tháo	-11.3078
▁thượng	-11.3078
▁khiếu	-11.3078
▁gỗ	-11.3078
▁ếch	-11.3078
▁xôi	-11.3098
▁rim	-11.3142
▁sốp	-11.319
▁ào	-11.3205
▁ngón	-11.3269
▁côn	-11.3276
an	-11.3283
è	-11.3287
ắc	-11.3288
▁quỳ	-11.329
▁am	-11.329
▁gối	-11.3291
▁mắm	-11.3291
▁ráng	-11.3291
▁bể	-11.3291
▁đắng	-11.3292
▁bến	-11.3294
▁cút	-11.3295
▁thảm	-11.3303
▁lau	-11.3323
▁hang	-11.3405
ác	-11.3496
▁ná	-11.3507
▁châm	-11.3508
▁chấn	-11.3508
▁thước	-11.3508
▁ốc	-11.3508
▁điền	-11.3508
▁gián	-11.3508
▁chuột	-11.3509
▁đết	-11.351
▁vua	-11.3511
▁thôn	-11.3514
▁chót	-11.3514
▁gon	-11.3515
▁chin	-11.3519
▁van	-11.3534
▁mau	-11.3556
▁chải	-11.3568
ẹt	-11.3595
▁cồn	-11.3693
▁há	-11.3722
▁chặn	-11.373
▁nếp	-11.373
▁phẳng	-11.373
▁sắt	-11.373
▁sịt	-11.3731
▁hớt	-11.3731
▁dớt	-11.3731
▁lọt	-11.3732
▁lánh	-11.3737
▁mắng	-11.3738
▁gàng	-11.3743
▁tem	-11.3747
▁cun	-11.3768
▁siu	-11.3864
▁sợi	-11.3894
▁cong	-11.3908
▁bồn	-11.3937
▁mũ	-11.3953
▁chà	-11.3953
▁dan	-11.3954
ỉ	-11.3954
▁xạ	-11.3957
▁khép	-11.3958
▁loạt	-11.3958
▁nhức	-11.3958
▁quầy	-11.3958
▁trấn	-11.3958
▁vướng	-11.3958
▁đắm	-11.3958
▁vầng	-11.3958
▁mạn	-11.3959
▁xao	-11.3995
▁chúa	-11.3997
▁nhàm	-11.4004
▁bồi	-11.4008
▁khan	-11.418
▁dò	-11.4188
ứ	-11.4188
▁vươn	-11.419
▁vần	-11.419
▁bướm	-11.419
▁cắn	-11.419
▁gieo	-11.419
▁nảy	-11.419
▁phẫu	-11.419
▁vắc	-11.419
▁nách	-11.419
▁bết	-11.4192
▁dôn	-11.4196
▁vã	-11.4206
▁bùi	-11.4208
▁đun	-11.423
▁tá	-11.4292
▁sun	-11.4303
iu	-11.4332
ao	-11.4361
▁lò	-11.4426
▁cuồng	-11.4428
▁cậy	-11.4428
▁kiềm	-11.4428
▁kĩ	-11.4428
▁ngầm	-11.4428
▁pết	-11.4428
▁quăng	-11.4428
▁quật	-11.4428
▁vựng	-11.4428
▁đệm	-11.4428
▁vạch	-11.4428
▁khâu	-11.4428
▁thót	-11.4429
▁xách	-11.4434
▁cua	-11.4443
▁giu	-11.4456
▁khôn	-11.4467
▁lui	-11.4473
▁hờ	-11.4481
ái	-11.4532
▁ton	-11.4554
▁ngó	-11.4569
ột	-11.4625
ấp	-11.467
▁gắm	-11.4672
▁luồng	-11.4672
▁nhục	-11.4672
▁rụng	-11.4672
▁mọc	-11.4672
▁đoan	-11.4673
▁xào	-11.4674
▁hoành	-11.4685
▁hiu	-11.4686
▁lanh	-11.4702
▁gam	-11.4711
ui	-11.474
▁chiu	-11.4744
iii	-11.4778
▁giáng	-11.4805
ớt	-11.4914
▁trù	-11.4916
▁bự	-11.4921
▁bừa	-11.4922
▁lấn	-11.4922
▁phường	-11.4922
▁đứt	-11.4922
▁mỉ	-11.4922
▁nhỡ	-11.4922
▁rết	-11.4923
▁nàng	-11.4925
▁phiêu	-11.4929
▁suôn	-11.4933
▁loa	-11.4939
▁gôn	-11.495
▁manh	-11.4963
▁loan	-11.4971
▁nhát	-11.4993
▁nhị	-11.5173
ẻ	-11.5175
▁chật	-11.5179
▁gắt	-11.5179
▁ngâm	-11.5179
▁niêm	-11.5179
▁rệt	-11.5179
▁súc	-11.5179
▁thép	-11.5179
▁thạo	-11.5179
▁rỡ	-11.5179
▁nần	-11.5179
▁méo	-11.518
▁đáy	-11.5183
▁vong	-11.5184
▁pheo	-11.5187
▁nem	-11.519
▁ui	-11.5216
ót	-11.5267
▁bẩm	-11.5442
▁giùm	-11.5442
▁hụt	-11.5442
▁ngợi	-11.5442
▁róp	-11.5442
▁trương	-11.5442
▁đẽ	-11.5442
▁bấy	-11.5442
▁loay	-11.5442
▁ưa	-11.5442
▁hế	-11.5443
▁xám	-11.5444
▁ủi	-11.5446
▁hưu	-11.5446
▁nhãng	-11.5448
▁tòi	-11.5475
▁đền	-11.549
▁cài	-11.5504
▁cốp	-11.5505
▁riu	-11.5615
▁hơ	-11.5704
▁xá	-11.5706
▁bã	-11.5706
ổ	-11.5706
▁xà	-11.5706
ỏ	-11.5707
▁lồ	-11.571
▁xé	-11.5711
▁bệ	-11.5712
▁chuộng	-11.5712
▁chước	-11.5712
▁hân	-11.5712
▁ngửi	-11.5712
▁rỗi	-11.5712
▁sếch	-11.5712
▁thòi	-11.5712
▁trượt	-11.5712
▁đùng	-11.5712
▁mạo	-11.5713
▁cen	-11.5713
▁nết	-11.5713
▁vĩnh	-11.5715
▁thổi	-11.5716
▁xỉn	-11.5718
▁cúng	-11.5724
▁bom	-11.5772
▁inh	-11.5795
▁lẹ	-11.5851
▁chô	-11.5983
ấy	-11.5985
▁gò	-11.5986
ẹ	-11.5987
▁trồ	-11.5987
▁kè	-11.5987
▁mé	-11.5988
▁lũ	-11.599
▁chén	-11.599
▁hầm	-11.599
▁kẹp	-11.599
▁lật	-11.599
▁mập	-11.599
▁rỗng	-11.599
▁vắng	-11.599
▁vặn	-11.599
▁địch	-11.599
▁chẽ	-11.599
▁bới	-11.599
▁xơ	-11.5991
▁phừn	-11.5991
▁yết	-11.5993
▁lồng	-11.5994
▁tút	-11.5997
▁hoay	-11.6001
▁teo	-11.6002
▁nồi	-11.603
▁xui	-11.6073
iờ	-11.6082
▁bôn	-11.6101
▁dại	-11.6111
▁liu	-11.6119
▁tro	-11.6133
▁nôn	-11.6144
ị	-11.6271
▁bun	-11.6275
▁chắt	-11.6275
▁lưới	-11.6275
▁lưỡi	-11.6275
▁ngứa	-11.6275
▁nhằm	-11.6275
▁rực	-11.6275
▁võ	-11.6275
▁xâm	-11.6275
▁ầm	-11.6275
▁ngụy	-11.6276
▁rũ	-11.6276
▁gớt	-11.6276
▁gay	-11.6283
▁xay	-11.6288
▁nhung	-11.6347
▁chừ	-11.6393
▁ló	-11.6412
▁bú	-11.6428
▁nhã	-11.6562
▁rè	-11.6565
▁the	-11.6566
▁cớ	-11.6569
▁bẫy	-11.657
▁dóp	-11.657
▁gầy	-11.657
▁khùng	-11.657
▁lợn	-11.657
▁nhăn	-11.657
▁trạm	-11.657
▁vuông	-11.657
▁cạc	-11.657
▁thoái	-11.657
▁đếch	-11.657
▁bẻ	-11.657
▁đuôi	-11.657
▁lốp	-11.657
▁khoát	-11.657
▁táp	-11.6571
▁xạo	-11.6572
▁chìa	-11.6572
▁nhịn	-11.6575
▁dưa	-11.6576
▁nghiêng	-11.6585
▁mini	-11.6636
▁doi	-11.6646
▁chè	-11.6868
▁tứ	-11.6872
▁chùa	-11.6873
▁dập	-11.6873
▁nguyệt	-11.6873
▁rốc	-11.6873
▁sụt	-11.6873
▁đùi	-11.6873
▁xuôi	-11.6874
▁beo	-11.6888
▁hổng	-11.6889
▁bộn	-11.6914
▁vá	-11.6916
▁phôi	-11.6921
▁moi	-11.6945
▁nhờn	-11.6976
▁sừ	-11.7128
▁dia	-11.714
▁nàn	-11.7155
ũ	-11.7182
ễ	-11.7183
▁dẫu	-11.7185
▁guốt	-11.7185
▁khẩn	-11.7185
▁ngưng	-11.7185
▁ruộng	-11.7185
▁thắt	-11.7185
▁ương	-11.7185
▁nhượng	-11.7185
▁ướt	-11.7185
▁ngầu	-11.7185
▁nể	-11.7186
▁lề	-11.7186
▁túy	-11.7187
▁phách	-11.7191
▁chiên	-11.7201
▁chảnh	-11.7203
▁bón	-11.7214
▁gồng	-11.7218
▁rôn	-11.7355
▁chéo	-11.7508
▁dọa	-11.7508
▁huyện	-11.7508
▁khắt	-11.7508
▁khớp	-11.7508
▁léo	-11.7508
▁lận	-11.7508
▁nhút	-11.7508
▁pốt	-11.7508
▁niềng	-11.7508
▁bếch	-11.7508
▁nhược	-11.7508
▁mạc	-11.7508
▁tép	-11.7509
▁vạn	-11.751
▁pen	-11.7511
▁thính	-11.752
▁reo	-11.7523
▁bả	-11.7789
▁ủ	-11.7831
▁dâm	-11.7841
▁gớm	-11.7841
▁mải	-11.7841
▁trâm	-11.7841
▁xưng	-11.7841
▁đọng	-11.7841
▁viêm	-11.7841
▁đíp	-11.7841
▁ngỡ	-11.7841
▁khoái	-11.7841
▁rễ	-11.7841
▁khoác	-11.7841
▁mộc	-11.7845
▁chợt	-11.7848
▁phanh	-11.7864
▁hoi	-11.7876
ơn	-11.7876
▁riết	-11.7879
▁bịch	-11.791
▁bơn	-11.795
▁au	-11.8009
▁vía	-11.8047
▁phàn	-11.8055
▁vớ	-11.818
▁nhì	-11.8183
▁dí	-11.8185
▁cạo	-11.8186
▁giỡn	-11.8186
▁măng	-11.8186
▁ngoặt	-11.8186
▁ngửa	-11.8186
▁đạm	-11.8186
▁ốt	-11.8186
▁chọc	-11.8186
▁vế	-11.8186
▁bần	-11.8187
▁trệ	-11.8187
▁cọc	-11.819
▁tàng	-11.819
▁hái	-11.8194
▁thục	-11.8195
▁dỗi	-11.8197
▁bói	-11.8218
▁lun	-11.8251
▁phím	-11.8284
▁gin	-11.8332
▁hoan	-11.8341
▁đế	-11.8535
▁thổ	-11.8538
ầu	-11.8542
▁thốn	-11.8542
▁chém	-11.8543
▁hức	-11.8543
▁khuẩn	-11.8543
▁ngừa	-11.8543
▁quẩn	-11.8543
▁quậy	-11.8543
▁quyến	-11.8543
▁sép	-11.8543
▁huệ	-11.8544
▁xăm	-11.8544
▁dè	-11.8544
▁gừn	-11.8544
▁quế	-11.8545
▁háp	-11.8545
▁goai	-11.8552
▁mồm	-11.8556
▁oan	-11.8568
▁bùn	-11.8571
▁sợt	-11.8633
▁vãn	-11.8889
▁bế	-11.8908
ĩ	-11.8912
▁hé	-11.8912
▁cạn	-11.8913
▁dội	-11.8913
▁gạt	-11.8913
▁lép	-11.8913
▁miệt	-11.8913
▁rắn	-11.8913
▁xắn	-11.8913
▁suối	-11.8913
▁tiễn	-11.8913
▁vỗ	-11.8914
▁quẹt	-11.8914
▁khư	-11.8914
▁nhũ	-11.8914
▁lè	-11.8914
▁thề	-11.8915
▁ưng	-11.8916
▁đặng	-11.8916
▁háo	-11.8916
ọc	-11.8924
▁đong	-11.8957
▁khổng	-11.8978
ơi	-11.8984
▁sum	-11.9015
▁toan	-11.9027
▁rộ	-11.929
▁hố	-11.9293
▁giỏ	-11.9296
▁bứt	-11.9298
▁duyệt	-11.9298
▁dẻo	-11.9298
▁huỳnh	-11.9298
▁kẽ	-11.9298
▁lưỡng	-11.9298
▁mấu	-11.9298
▁nghiệt	-11.9298
▁rạp	-11.9298
▁thắp	-11.9298
▁trêu	-11.9299
▁cựu	-11.9299
▁rành	-11.9299
▁nhẽo	-11.9299
▁búp	-11.9299
▁vát	-11.9301
▁ngột	-11.9302
▁báu	-11.9304
▁tùm	-11.9304
▁kìm	-11.9345
▁bơm	-11.9368
ôi	-11.937
▁vơi	-11.9404
ịt	-11.9482
▁tà	-11.9681
▁lố	-11.9692
▁cộ	-11.9693
ự	-11.9695
▁sò	-11.9697
▁cướp	-11.9698
▁cẩm	-11.9698
▁dốc	-11.9698
▁gõ	-11.9698
▁lụy	-11.9698
▁ngách	-11.9698
▁ríp	-11.9698
▁rụt	-11.9698
▁sầm	-11.9698
▁sọt	-11.9698
▁triều	-11.9698
▁vượng	-11.9698
▁vọt	-11.9698
▁xoáy	-11.9698
▁đục	-11.9698
▁rẽ	-11.9698
▁khỉ	-11.9698
▁trăng	-11.9699
▁xáo	-11.97
▁lâng	-11.97
▁mách	-11.9703
▁kiêng	-11.9706
▁lột	-11.9717
▁nạt	-11.9718
▁vao	-11.9727
▁vích	-11.9742
▁mòn	-11.9756
▁ế	-11.9944
▁ké	-12.0108
▁rà	-12.011
▁trú	-12.0111
▁chiêm	-12.0115
▁giọt	-12.0115
▁gộp	-12.0115
▁hỏa	-12.0115
▁lõng	-12.0115
▁mẫn	-12.0115
▁quỷ	-12.0115
▁ráo	-12.0115
▁trặc	-12.0115
▁rạch	-12.0115
▁điềm	-12.0115
▁nịt	-12.0115
▁sói	-12.0116
▁rần	-12.0116
▁huế	-12.0116
▁chây	-12.0116
▁mía	-12.0119
▁trùm	-12.0119
om	-12.0142
▁mun	-12.0153
▁rom	-12.0168
▁bạ	-12.0538
▁mỏ	-12.0541
▁pe	-12.0544
▁trơ	-12.0546
ử	-12.0548
▁hủ	-12.0549
▁bưng	-12.0549
▁cháo	-12.0549
▁diệt	-12.0549
▁gép	-12.0549
▁hóp	-12.0549
▁ngùng	-12.0549
▁nấm	-12.0549
▁vẩn	-12.0549
▁đòn	-12.0549
▁gác	-12.055
▁geo	-12.0553
▁chèn	-12.0557
▁chông	-12.0557
▁cúi	-12.0576
▁lem	-12.058
▁nà	-12.0587
▁phốt	-12.059
▁bênh	-12.0626
▁ghe	-12.0999
ỡ	-12.1
ỗ	-12.1001
▁lú	-12.1002
▁lén	-12.1004
▁muôn	-12.1004
▁múa	-12.1004
▁pu	-12.1004
▁séc	-12.1004
▁sích	-12.1004
▁sương	-12.1004
▁choáng	-12.1004
▁địt	-12.1004
▁quít	-12.1004
▁thạch	-12.1006
▁lút	-12.1006
▁khờ	-12.1006
▁bìa	-12.101
▁gào	-12.1015
▁von	-12.1016
▁tạng	-12.1017
▁cỏi	-12.1018
▁ganh	-12.1031
ằng	-12.1051
▁phà	-12.1182
▁cù	-12.1478
▁chuyền	-12.148
▁chưng	-12.148
▁kiếp	-12.148
▁mân	-12.148
▁mưu	-12.148
▁nhúng	-12.148
▁quỵ	-12.148
▁trãi	-12.148
▁xoài	-12.148
▁đạc	-12.148
▁gừng	-12.1481
▁đần	-12.1481
▁phâu	-12.1481
▁trát	-12.1481
▁quơ	-12.1481
▁ngần	-12.1482
▁thét	-12.1482
▁thon	-12.1892
ữ	-12.1973
▁chẩn	-12.198
▁dào	-12.198
ủ	-12.4268
ẽ	-12.9165
ý	-12.9166
ỹ	-13.4624
ỵ	-15.7438
ẵ	-15.7439
ỷ	-15.744
õ	-15.7441
ẳ	-15.7442
ẩ	-15.7443
ẫ	-15.7444
ằ	-15.7445
ă	-15.7446
x	-15.7447
q	-15.7448
d	-15.7449
â	-15.745
k	-15.7451
s	-15.7452
b	-15.7453
r	-15.7454
v	-15.7455
l	-15.7456
đ	-15.7457
ỳ	-15.7457
